0500
1001
04fe
0405
0705
0403
08fe
0404
0800
0406
1001
1000
0f00
0303
0408
04fd
0502
10fe
03fc
0f00
0202
0cfd
0b00
0501
0302
0301
0a02
05f3
04fe
0901
0d00
1001
0fff
05fc
0d00
0306
0e00
0f01
0000
07fd
0d02
03ff
0e00
04f7
09ff
03ff
0302
04ff
03ff
03fd
0afe
0a01
03f9
05fa
0eff
0ffe
1100
07fd
03fe
0bfa
0401
0f01
0a02
0bfa
0bff
0404
10ff
0b02
0e02
0d00
06fa
0e04
0405
0405
0503
06fb
03fb
0501
0301
1201
05fb
08ff
0700
0b00
0506
0cfe
0701
09fc
10fe
0eff
0eff
0ffe
0d00
05ff
1100
0b01
0bfc
10fe
04ff
03ff
10ff
0b00
04fa
0403
0404
0dfe
0501
0efc
0d03
0c00
05fd
0403
0e03
0cfd
0b02
0a00
0bfe
0e00
05f7
05fe
0304
0409
06ff
05fd
0400
0401
0403
0afc
0b03
08fb
0100
0dfe
0d02
0700
0404
0701
05fa
0ffe
0a04
0500
06fe
0900
05fa
0a03
04ff
0bfe
08ff
0600
0bfa
0b05
08fc
09ff
0f00
0dff
0b01
0301
0d02
06ff
0503
02ff
1002
06fe
06fa
03ff
0401
1200
04fc
04fc
04fe
0504
05fd
0500
0200
0904
0400
03fe
04ff
0401
0301
1201
0404
0d01
0607
0d03
03ff
0901
0400
0b02
0000
0303
0802
0c02
0a01
0201
0301
0300
03fd
0405
10ff
0602
05ff
0cfe
1200
0404
1001
0400
0d01
0bff
0403
0d01
0300
0f00
06ff
0500
0402
0401
09fe
07ff
0eff
06fb
0801
05ff
05fe
0e01
0b02
0d02
0406
0b08
0401
0504
0301
0401
03fb
0ffc
0402
0502
0400
05fd
1000
0f01
03ff
0903
0700
0604
03fe
0300
0d00
0eff
0505
04f8
0bfc
0dff
0303
0407
0900
0401
05f8
0300
0c01
10fe
0f01
08fb
04fd
09fc
04ff
0ffd
0301
0cfe
1002
0404
0b01
1100
0800
0a05
0b04
0cff
0dff
0f00
04fc
0dff
0600
0bfc
0400
0700
1000
0d02
0502
11ff
1002
0304
04ff
0d00
0afe
0a02
08ff
0902
0301
03ff
0e03
0301
06fa
07fc
0500
0d00
0401
0500
09ff
04fb
04fc
0402
03fe
0f03
0afe
04fe
0fff
0300
04ff
0e01
04ff
0ffe
05fd
0e00
0f01
03fe
10fe
0c02
0300
0501
0f00
04fe
0805
0706
0a01
0400
08fd
03fd
1000
0707
0bff
0301
10fe
0400
03fd
1001
04ff
06fd
0e02
09ff
0f01
1003
04fb
0ffe
03fe
09fd
03fe
0608
0602
0406
06ff
0fff
0f01
03ff
10fe
0400
0dff
0304
04ff
0703
0501
0b02
0ffe
0f00
04ff
0c00
08fb
0aff
0efe
0e01
0300
0e01
0400
0aff
0e01
05ff
