memory_initialization_radix=16;
memory_initialization_vector=0000020105030103 0105020100010102 0402030003010402 0000020202040201 0405010001010000 0102030301020402 0404050404030401 0202020305000105 0405050303040403 0400020001040301 0302010303010104 0300050203010403 0302000402030404 0500050105000104 0203030202010204 0404010101010404 0002020205010301 0403040301000404 0300050202040405 0104000305010002 0204040503000203 0205020301030204 0402020202020103 0003010205030201 0103040504040201 0002020501010204 0203010303010401 0103040102030401 0101020105010302 0401030002040302 0401020302030101 0402010202010204 0105040204020005 0302050101010204 0301030204040302 0303030204040205 0102020100040203 0403040000020204 0301000201050304 0101040104010404 0500050304020104 0403010402050302 0404010402010301 0103020304010201 0204020502020102 0403040400040004 0303050101030200 0105010302020504 0304030005020001 0102020203030404 0203020403040103 0403010302020202 0001020104010303 0102010401020501 0102010001010404 0204010300030204 0201000202020203 0103040404040102 0303040502030402 0204030404050501 0401030303010201 0301000200010504 0203020203010304 0301050503020504 0202010500040402 0403000404050204 0504040203050201 0301010402050103 0300030101020503 0304020100040403 0400040504020101 0503020503000104 0202030105050204 0300050104000201 0101020304010105 0101020401030302 0401010501010101 0202030200030403 0101010102000303 0301030201030002 0204010100020202 0402020503050503 0102020300050502 0202030504020202 0403000303050100 0202000001050103 0204030103030303 0405030504020202 0003040103050404 0200010400010100 0404020004020302 0204020005010400 0202020303040404 0204030403020203 0304040505010101 0301020103020102 0304000103020104 0401000504020203 0203020104050004 0501010400020103 0100010201030403 0403020105020401 0302010204000105 0504030405040400 0001020401050003 0404020300020100 0103030302040503 0104010003040403 0001010204020401 0305040104050301 0300010301030302 0101010402020103 0301040201020203 0203050002010305 0502040204030101 0301000005010405 0201020501000405 0303010400000103 0404000100040503 0103040202040403 0300020005040201 0400050201030201 0004010300000102 0300000302010401 0404030501020301 0305000103020404 0203020300020003 0201040202010303 0204050405050201 0401040101010100 0404030403030202 0204030401020500 0104000001030202 0103000304000200 0503040003050102 0300040300050101 0201020200020203 0104040403020401 0001030201040401 0100030403050301 0300040403030504 0401030104050301 0204010102040401 0303010403020402 0205030402030203 0502010004030503 0403010303040504 0405010102050205 0300030104050304 0404030303030305 0401010401020401 0004050102030202 0401020103010304 0202020202040004 0305020200020201 0402010103010201 0105040402030403 0504030301020301 0103040503040401 0005040205010101 0303030300040102 0403040100030001 0403020202000401 0304000104020301 0402050205010003 0302030101030305 0104020005020203 0101020303050404 0002030100040200 0403040503020403 0204040304000202 0003040303020303 0303030203020303 0302000102030403 0103040503020405 0104020400030302 0203050303040502 0202020204040205 0103040305010402 0502010404000200 0201030100010301 0404000300010204 0003040201030302 0501040501040402 0201020404010203 0404040201040405 0401010204020503 0400050304040301 0400020405030402 0205030103030102 0102030303010201 0502010101040201 0305020105020204 0203040201040405 0205040403010304 0103020304020305 0300040204010305 0305010503040202 0001040101030003 0402040405020304 0301040305000301 0200020303040102 0100000403000503 0505050300010304 0104030203010102 0000010302000503 0204030303030202 0200000303040201 0303040101050102 0005030301040203 0102030201050102 0404030400030405 0304030200020402 0404030303050402 0402020302020302 0003030301030503 0304030204040302 0002030201040203 0405010104000102 0005010204010201 0100030203030304 0203000403010105 0105000504010101 0303020401050305 0101010501020400 0104010304040003 0105040105020305 0503030204040101 0204000304000203 0304020003030004 0302020304050201 0003040101010104 0401050301040104 0102030203030401 0200000105020201 0005030301020501 0203030103020401 0502020102050004 0202040404030001 0102040204050102 0303010300040104 0301020305020102 0101020402030302 0300040504010305 0003040202000402 0501030001010302 0205040102020500 0403040205050302 0404000101000003 0202020305010304 0301010402030501 0201030404020101 0403000101020204 0401010302010303 0300030002010503 0504020400020301 0103030000020103 0301040200020404 0405010102000200 0001020104030301 0305000103030203 0100010201000102 0401020201040403 0000030503040103 0104040402040304 0104040302030000 0500000303030400 0101040204030004 0302040401010202 0001030304030205 0202030002020302 0102000205030100 0201030204040101 0101000103030203 0501030001010204 0401010303010003 0302030201030303 0101000204020405 0202020305020202 0000040402000104 0305000401020100 0302040404040204 0203040203020501 0403040202020105 0400030102050301 0204040304030002 0505010302010401 0404020401030404 0301020404050200 0401050004000305 0203040305000002 0301030302030401 0305040203050102 0404040405050402 0204030504030304 0403010100040402 0002040202030201 0305040300050104 0200010000020305 0202010100030102 0102040004010404 0404030403030200 0001020104040103 0400000402030205 0403020103020501 0503010504020303 0501050403010102 0202010202010105 0204030105020303 0403030305000402 0201010200040203 0402040105020102 0404020501040304 0003050002030502 0304030204000402 0403000403000100 0300010401040403 0504010402020105 0002040404000404 0403020205020303 0402020002050505 0303010104010500 0002000203030301 0201030205010101 0502050301000402 0403030005030504 0300020403000201 0303020202030205 0302010100010302 0001020100010104 0003040100020201 0105040104020104 0103040103040401 0304040502050003 0305020400050403 0103000101030305 0503020004030104 0301020505030000 0304020200020103 0501020003020202 0100040002030205 0004010502030205 0102010303030202 0103050105030205 0101050501020402 0303020205010405 0403020003030305 0303010203010301 0102010402020103 0004040401010405 0202020204030404 0300020102030501 0104020101030104 0102010105020204 0405030204040401 0301050002040103 0404030105000105 0304010103040401 0001020301020302 0102040503020204 0203020401030103 0502040302010104 0301020404030203 0202030402000100 0201010301000201 0404040505050101 0304010401020104 0201000302010104 0404020404030404 0104040405040302 0300030404010501 0103030203000302 0002020104010503 0103010303020001 0302000003020304 0002040405010400 0105010105010304 0300000302030501 0401010305030402 0303010103010305 0301030300040303 0105030305030200 0504000404010102 0301020103040201 0300040101020101 0205020204000405 0103050202010304 0304010304040302 0405050102010100 0203020400010104 0104030503020103 0101020500010505 0502040102020504 0502050103030102 0302040305040202 0204030400020202 0101020302050102 0104040403040300 0002040003040503 0401030303050100 0302010104040304 0302020401040302 0405000200040205 0402020202040302 0101020000000400 0503010304040101 0501000403040203 0304010301040404 0303030501030304 0400020405050303 0103000400020404 0302000102000001 0205020003030202 0302020305000503 0501010203020104 0302050503030403 0303010104020401 0403030100050503 0403000501020103 0203000402020402 0201050004040500 0004000300040103 0301030000030103 0501030102020102 0101000004000300 0202010005030401 0501050502000401 0404010205010101 0105020004000405 0403000402040202 0304000401010503 0000030101040403 0303050205050100 0205010100030501 0401010402030302 0304040105040205 0201010302050201 0405040303010301 0502020305010403 0400030405000101 0200020201000302 0404020404000300 0302040103030202 0300010403030203 0403010305020502 0305020105010405 0200030504050003 0202000303050100 0404010300000103 0302000502050104 0101050005020203 0203030303050402 0401030103050202 0103050103050302 0402020404010105 0301030501010301 0403050100010105 0504030202020404 0404020001030400 0302020104010104 0205010202030301 0304020201040103 0402030200050402 0303000103030205 0501040000050402 0403010302020303 0501020202010301 0101040204010204 0403040005040101 0004040403010404 0501000402010504 0105010402000305 0204010104010101 0100050105050401 0402010101020401 0301010100020301 0501030102000101 0403030400040102 0102040304030001 0203010404000404 0103010403040004 0104050303030303 0202000102020105 0202010201040503 0502050303020301 0102030403040302 0402030205020500 0300040203000401 0003020401040304 0103020205010401 0202040202020204 0102020200010305 0102000003010502 0203040302040403 0002030501020103 0001040004010103 0404050300040104 0202000303030000 0304040304000200 0202000103010200 0101050302030403 0102040401040100 0402010401020302 0002030501020204 0004020203040002 0305030302050405 0102010502000301 0100010505040201 0204030403020503 0103010203040404 0102000505040403 0403020300050304 0305030102020305 0205010201040501 0103040502040102 0303000304030003 0302040105050202 0302050100040100 0502030005040105 0101010303000504 0304030104010101 0104040301050204 0204040403050101 0103010300010304 0103020502050305 0203010402040304 0303040401040100 0404040104010405 0504020404040301 0204030201050400 0503000001020104 0104030404030202 0104040301020102 0204010200020401 0402050202030404 0205030402030304 0404030004020304 0100000201030504 0302050203010302 0100010305040101 0303020404030202 0101040501040504 0303000100040101 0104000201040201 0105030202040502 0200000203000105 0402040201010104 0002040201020201 0101010400040301 0403010202050201 0401040305030303 0101030503040305 0205000402050402 0202010504020101 0500010305010202 0101050204040403 0302030302030103 0301030402020101 0204010200020102 0505020204010203 0104000303010104 0403050102030002 0204020105040105 0205010302000204 0400010203010401 0303010200040404 0404030102050403 0200020401040103 0102000304010301 0302050303020103 0203040305010300 0100040001030502 0103000301020300 0503010201020002 0004020404040204 0104040201000204 0303020304000102 0501030205020101 0505050101000402 0301030105020105 0101030100030002 0302010302040204 0401030201030103 0303010103040302 0104030004030101 0304020305030201 0501040402000102 0203010204020402 0304040104010404 0101040403040105 0503040000030103 0102020104010202 0003030002040103 0300030202020401 0300010305020103 0300020301030104 0302050104020500 0001000503020103 0101000404040403 0401010503010102 0102030100030201 0404040205030504 0104020403020201 0204030301010504 0304000203040102 0004030505000500 0101050403030404 0203010401040200 0404040201050005 0502020403030400 0200030100040101 0203010200040204 0205020102010101 0204050103030201 0001020502010504 0404000201030404 0302030403050402 0401000501010103 0500020000040105 0202030200050205 0102020103040302 0004050304030001 0101010305040301 0301030304050303 0101020102020001 0303020402000401 0302020304030300 0002020202050104 0403050405040301 0202030304020103 0102020202040104 0402050104010303 0203040505010000 0500010502030203 0404020001010002 0001040001040201 0404020401050302 0104020501030000 0402030303010402 0304010203020503 0101020504000104 0402020205010303 0200030204050101 0201040104010304 0203010501000302 0305040101050100 0203040002030300 0401030204030404 0501010004030304 0004020300020305 0201000105020302 0201010401050005 0304000202030202 0204030103040402 0201050002050405 0103040204040404 0004000003030100 0103020000010404 0304050404010403 0203030204050304 0104020104030401 0400030303030304 0202010501030400 0302050205010003 0202010203010405 0303040302030304 0103040202030404 0001000304020200 0400040403030403 0301020501030002 0501020102000100 0201010503030202 0202010403040105 0103000204040202 0401010102000503 0503030503010204 0105040003040203 0301040305020501 0403010204050401 0105020205030404 0401010303010104 0101030102040202 0100020204020503 0101030201010203 0202030501020001 0400000403050505 0104020305020103 0305030202030301 0405030200030400 0403030403020505 0103010304050504 0302050305050105 0500020003020301 0400020201010202 0001040503030401 0200020305020503 0002010401030101 0401010204030501 0101020102040105 0101010502020101 0302030403010101 0201040003010303 0401050201010300 0205000305010400 0103030500030205 0103050404010504 0403020302030402 0103030103010504 0204030204030503 0505020205000504 0403020302030200 0003020502000402 0305010204020502 0105000203000104 0202030302040305 0203040204040101 0400030303050304 0405030001010401 0201040502020501 0304000405040302 0202010004010304 0305030002010404 0401010503030402 0203030203010402 0205020102030101 0105050300030004 0003030403050500 0201000201000203 0305030103040102 0503020402000402 0202020401040101 0503010101040402 0300040300040104 0502000101000401 0105010203020401 0400000500030400 0504010001030201 0202040305030003 0002040400050101 0101010102050502 0502030102010304 0403000104050501 0102020304010001 0503020103010102 0403040302010204 0202020103020200 0200020304040001 0203000502030502 0103030402030104 0205050400030405 0201040304010100 0404050205040402 0200010201010402 0002030403040100 0305030103030003 0303010102030202 0501030302020103 0305020201010503 0500040402040000 0304020401010204 0101040104030004 0002010402000102 0103040301040004 0302020300040300 0501020301000301 0303030204030204 0205030300020103 0000050300030102 0305040202010001 0005040303020201 0203020200020405 0201030102000403 0101020105020304 0500000304050101 0104040303010003 0501040202030102 0402040303020204 0304000101010403 0101020403050101 0102000500030301 0302010405040105 0200020404040205 0303010303000201 0401030303040405 0200030305030300 0104020102010101 0500020303040303 0002040104030302 0001050404010105 0301010503030001 0502010303010203 0501000301010203 0304030303020402 0102020504050403 0401030103040402 0204030203030102 0204030301020201 0302030004030201 0003020504000101 0103010404010504 0100040304010403 0105020202010302 0105010101000003 0504010302040203 0100030200050002 0403030104040201 0205010505030000 0102000103040404 0104010303000504 0103040303010100 0103030304030504 0401000203010301 0403020102040005 0302050203040002 0100020304010202 0201020102030402 0304010201030103 0100050402020101 0002040003020103 0301010501040103 0102010504030201 0405040204010404 0403050301020105 0203040301000101 0103000100040101 0402020305040302 0201030501040305 0302020001030403 0403030504030401 0101010200020302 0200040202020401 0005010004050301 0402020304030100 0104020503050304 0204020303010103 0303010503030303 0303000002020001 0302030304050100 0405020302030304 0000030302050304 0102020101020100 0201030302010104 0101050204030202 0303040404040305 0302030301020202 0103030302020505 0005000405010302 0403000403030300 0002010400010403 0402020302050202 0102000201050105 0302030103010504 0002020002010204 0305020401010103 0201030002020503 0101010000030102 0404050301010304 0000040104040503 0002010201030402 0405030101020204 0200020001040102 0401020005000303 0101030205020404 0504040104050205 0403010005040404 0000020001040302 0401010404020101 0100000104020302 0303030301040402 0401040502000405 0500020304030002 0005030401050401 0102020503040304 0102030101020101 0103000404030203 0502020304030503 0401040105030302 0303050105050202 0104030302010101 0101020201000301 0103020203010404 0102020204000101 0403010202040502 0302020405000404 0202040001010500 0205050203020405 0401000103030400 0404020402050503 0201000401020301 0302050101040002 0003030302010205 0501020100040002 0501020302040301 0300020304040401 0403040504020504 0100040101010104 0103030201030403 0102020504040102 0203040502020202 0002020102010102 0302040203020504 0502050303040101 0405010204010505 0001040304040402 0203030500030200 0300040304050501 0504050303010205 0402010202030503 0004040102020100 0303020102010400 0401030100000201 0304000204050101 0401040103040100 0403020001020501 0205040201000102 0501030503050003 0201020300010103 0203000401000202 0102010501030305 0202020300010102 0204000302030301 0503010403020302 0404030202030102 0002020502040301 0500010400030103 0201040301050104 0203030403000003 0203030501040202 0302020000030203 0202000503030505 0502030103020303 0301000201040301 0304010202020304 0404040203040201 0001000302030101 0301040304030102 0301020504030202 0501010100000002 0200020503040300 0104050303040302 0503040200040400 0403030105000103 0103020203030402 0200030402040304 0203020202040405 0502040501040002 0105010000020303 0303000200020503 0402040004000404 0503030101030405 0102010003040301 0103040401030301 0204010304000303 0103040102050202 0402050102040203 0403000202000402 0401000100040101 0304010403010503 0502010205040000 0301030103010201 0002050403040301 0304030301030304 0104030103020403 0201020204030304 0505040303000504 0404040302010300 0500010002010003 0403050102040500 0102000400050002 0004010004000104 0101040104020003 0301050304050302 0300020301030400 0303010400040503 0400020102040204 0103010403030004 0504050505040200 0400020501020304 0302000501020304 0501000200010102 0104030204000001 0003020201040401 0403010103030200 0402010100030500 0504040503050403 0501010200050103 0202010303010102 0000010404010201 0404010400040504 0304020404030301 0404020402050500 0201020202050305 0205010203030402 0305040403040203 0004030103010203 0501010502000303 0202000102020405 0304010100050204 0502000204040302 0202010500030201 0505030002030201 0302030304010002 0204020403030503 0200010300020203 0003040101010103 0103010104030100 0405020504050103 0103040301040404 0304040301030103 0200050305050404 0204020500030101 0401000101040401 0205040101040301 0205040405040005 0200010302040104 0203040301030405 0101000000020200 0204030400050304 0303020101010302 0203010204020302 0402020200010504 0403010404050304 0105010302030303 0203030403050302 0201040204030004 0402050203020503 0301010302010005 0201030403040101 0103030305030203 0003050103040004 0503030101050100 0302030303040303 0201050105010201 0003040401020003 0403040204010401 0200010403030202 0502030103040405 0500050103010400 0204050102040305 0301040304010301 0100020404010300 0205000002040104 0302010103040405 0104010303050504 0103030304030403 0404020103000001 0404030200030302 0405000103030102 0504010302010401 0404010102020204 0104040402030402 0104010403010202 0002020302010102 0301020102040003 0103010104030405 0403010102010304 0003030104020404 0305040302000100 0400030103050200 0201040401020503 0301050002040104 0500010501020500 0300010302010400 0101000100010301 0004030504020304 0402040500030304 0103040003010301 0201010302000301 0401040504020403 0202030004030401 0303010003000105 0104010202000504 0401020305040102 0305010204010402 0500050102040101 0404030504030501 0301030405000203 0502010101030104 0301050203000203 0501000101030305 0404030400030503 0102050004030002 0304040404030205 0404020205020001 0404050205030105 0002010001020202 0203040403030001 0504000203020202 0102020203040501 0103020102040105 0405040003030204 0103020102020303 0502040103050104 0404010102000502 0402050304050203 0304050504030301 0102040301010404 0101020302010403 0005020302040101 0503020104050202 0205030100040104 0202050200010201 0301000302010305 0503010201030501 0404010302010102 0202050004020403 0505050204030102 0404040202010401 0403010503020300 0302020503000503 0401040202030201 0304010401040403 0200040304020002 0204020203000302 0001040200030402 0204020301020104 0101000300030303 0105030301030003 0101030004050403 0401030202020504 0300050305030105 0202020101010401 0305030204000004 0302030102050105 0102040103040503 0204010204040402 0203040301050304 0203040102030403 0202040005010202 0201040004020403 0201030301010004 0205010100010105 0301040101010303 0004010402040302 0300030401020102 0403040200010303 0200040200000304 0005020100030303 0203030302020205 0103000501020302 0103020102010002 0202030105030202 0302040304030300 0503050201040201 0504010302010401 0201010000030304 0005040301000301 0405010101040204 0203020402010104 0304050302040205 0401010401040504 0004020402030001 0005010102010502 0303010302020502 0102040202000305 0104040403020201 0405000105010301 0001010303030305 0505020202040402 0401020205030303 0001030305040105 0400030405040303 0205000402050003 0405010502050400 0102020404030101 0502010102050304 0202020002040200 0200050303010500 0505040401030004 0200040501010005 0500010302020205 0303050302030201 0203010401010003 0202040200050103 0102010304040203 0403010400050500 0300040303010205 0202010405020404 0304040204020003 0301020402020204 0101000402010505 0103030504030100 0102030204020103 0403050300000203 0204030004000202 0105010002010400 0205050401040400 0201020103030403 0203030201010305 0103010402050502 0202040303050002 0501040001030203 0100040302040100 0105010302040203 0201040202030403 0301000301020300 0402030103030404 0102050204000104 0400010203020004 0302040503020005 0300020402020503 0000050501020303 0502040303020201 0104000200030002 0200020401030201 0202010105040203 0202020404030203 0103040403020300 0205040201030201 0404040302030205 0501020105030202 0001030403030205 0201010300010002 0203010301040303 0202000204010103 0104050204040203 0103000103010502 0301050404000002 0101010501040001 0302030402010002 0202030004010405 0504040401000501 0301040100040301 0501010403030500 0502010202000504 0103000404030303 0205040400040500 0504010005020500 0504030403010402 0404050103010101 0300050102030502 0101000302030303 0504000503050403 0401010104020100 0503040305040405 0103020103010404 0403030202040301 0502030201050100 0504010400000103 0104050005040404 0405010301050105 0402010103010503 0403010304010103 0305040203040101 0300020203020204 0303000203020403 0005020004040302 0203020301030101 0200040103040001 0304010205040403 0102030301010304 0503040204000402 0503030404050503 0104030303040102 0202030104020105 0202040105010303 0203020402040203 0303000203030201 0403000104050504 0502030205030504 0404040303020401 0402040201010304 0400010401030204 0305040303020303 0201030102030205 0203020403020101 0303010404030402 0404010104020502 0402030002050100 0204040301030000 0203050002030104 0102000202010103 0001000402030403 0500040401020404 0305050105000200 0201010403010503 0502030200000103 0201020200020301 0000010102030102 0403030402020405 0104030303030105 0204040204040304 0302020304040303 0203030503050402 0004000101020103 0503030303040205 0505030002020302 0403010305040103 0204030302020301 0404030104030102 0304020402010403 0104040402010205 0501020005010103 0002010101040303 0304020301000103 0303020104040002 0503030401040404 0202020502030101 0402020204020501 0204010305030502 0302050400010402 0404050304010304 0001010504020004 0400000101050100 0102020102050202 0203040100010201 0502010005040301 0402030300000301 0303010404040105 0305010500040401 0504030401020002 0305020201010305 0202020303000305 0301030201020302 0305020202030200 0303000200010303 0103040202020400 0405040101020103 0505010302040403 0205040105020104 0101010502030105 0304030205010405 0201040303000101 0202040401020203 0300040103040302 0101050003040401 0304050404020401 0502010202040002 0403020404000105 0200000305050200 0101050304030204 0100010403050402 0403000205020201 0202000402050001 0503050004030402 0204040403040303 0303030301010304 0100040402040404 0200020000010305 0404000101040404 0204040401020301 0305040405030105 0302030303030104 0201030400000101 0004050204020302 0103000305030504 0501000404030203 0502010403030300 0105040003030405 0302020501040203 0402020201020102 0100050303020400 0202010301010302 0304040105020201 0504040002010104 0302050205000404 0304020201030504 0301040405040205 0000050301050005 0204040403040500 0404010503030502 0303010203010401 0202040302050401 0401040201000405 0205020204010104 0403010402030401 0301000204040204 0405020202000105 0201040401030102 0301040202050103 0104000101000304 0301020202030304 0302010204000202 0102040204040204 0003030102000304 0002040103050303 0302040204030102 0202040203050301 0305030503020401 0301020103020304 0104040405030005 0504010400020400 0104020504030101 0202030104040204 0301040204010205 0205020303010301 0402000202000205 0203030301040202 0203020205000201 0104010304020502 0103030401040301 0201020501040400 0401000203000004 0404040202020204 0301040305050104 0004010400040303 0203010401010205 0501020403020501 0102030104000302 0301040103030401 0402000001010401 0302040303030404 0304050301020301 0204020403050400 0304020201030004 0105030300000302 0504010302040101 0103040203040403 0102030302030302 0504010403030002 0104040002020104 0502050101030104 0404010302040300 0103030104030204 0502040004030402 0404040104030004 0304010300010303 0103030303010304 0305030103030304 0103020202010305 0104040500040203 0303020003030404 0305020403040401 0402030304020404 0003050105030104 0500030301010403 0402020201040204 0003050305050201 0204000403030005 0201030402050001 0103000104050103 0203040200020405 0203040202020102 0104030201020405 0504020504020302 0403010002010504 0202040301010204 0102050102020203 0204040201040303 0304020401010102 0302020103030002 0302030501030103 0000050404020103 0402040304030301 0301020300050304 0104020205050404 0402020101040303 0000050002020504 0204040304040200 0100010204040202 0102030403010405 0105040402020301 0005040402030501 0405040101020402 0204000102040201 0104010003050402 0105040301050003 0101030101020500 0403010301020301 0500020301040503 0100010201040404 0402030002010404 0501030304010401 0503020104040303 0301010505020004 0405020203020501 0403050502040302 0402030202040102 0002050104030400 0405040301040302 0101010402020402 0303010300010100 0204040201050204 0102030503030201 0103040400050404 0202020303040202 0303050004020200 0001040100040404 0001010303000204 0102020204010005 0304020001040305 0103000203030103 0300020400030202 0202020401050504 0301010205010101 0203000401020103 0103010501050203 0303020203010403 0301010201010100 0501020102010201 0304050105010101 0402040203030205 0100040503030401 0305000302020201 0300040201020302 0103010403010102 0204010102030102 0100020202030202 0401030402030203 0400030203000405 0002020201010401 0503050503010105 0303040402030301 0003000402010402 0300040405000304 0102020001030502 0501050504040402 0201020203020204 0204050303040102 0003030000050001 0104020402050503 0302030302010402 0501040200030502 0302020502000505 0103050405050201 0301000201050301 0403030105010304 0302000404040104 0101010104000102 0402030505030004 0500020501010304 0403030302010203 0302010300020202 0504010202030305 0200030300040203 0304010103030104 0101040402000404 0403040104000004 0203020400040301 0301030501040204 0103010105000305 0204030104010504 0302020105020501 0001010104010204 0403040402010304 0104050405030404 0502010200040400 0105040403040205 0105050000010002 0101030201020504 0500000202020401 0505040403030005 0201030202000302 0304030301040502 0002030402000404 0403010303010403 0302040401010200 0104000301010101 0402010301020401 0501050001000102 0502030204020500 0503030105030401 0503010303010301 0001010103000004 0304040004040304 0301010204010301 0301030401050501 0303040504050102 0005010405010304 0202040200040202 0401020201020404 0300000205030401 0503030301010100 0404050204030100 0303010402030100 0500050302020005 0302040301050401 0204000100020403 0202000204020102 0305020003010202 0105040001020401 0200020405010204 0105020402010002 0000010204040301 0202050503030100 0503050001010103 0001010405030205 0402020303040205 0302010402020103 0505050400030103 0400010203040303 0104010303040204 0402040101030400 0304020201000401 0104020201040200 0401000405000304 0303020304040002 0104010302050303 0300020102050101 0305010005010002 0202010103050201 0304040401050304 0102020201050501 0401030401020305 0100020204040203 0101040401030301 0001010202010004 0303010303030402 0505010303030402 0301030303020402 0401010301010101 0403010002040404 0302040102030500 0303040204050301 0302020402030104 0104040405040501 0404020102000003 0501030204020203 0405050304040104 0300040205020003 0305040304010304 0003010100040202 0200010301000403 0402030201000304 0303030301040404 0202030101030104 0204040103020201 0504000304030301 0402020400050303 0201000101030301 0302010501040305 0103000401000204 0102010403020405 0302030402010201 0002040104020105 0103010102030503 0404010200000104 0305020401030302 0401020305020402 0205020203020202 0101010502020003 0404030500050305 0002010303030100 0302000403040302 0204030302040204 0205050503000203 0100040504030403 0303050302050502 0201020201020200 0403030004040201 0301020303010003 0103030400030303 0104030501040305 0400020505020403 0400010000040301 0303050204010303 0003030101020301 0101040402040501 0100010101040001 0301010202010502 0302010304010002 0201030503050403 0400010302030401 0202050401000002 0204040203010203 0302010104040203 0105020003010103 0501040103020403 0301010302010404 0000010204010200 0305050000050101 0405050000040302 0403030301010301 0504020402030403 0102030403010304 0104040300030503 0404020002020102 0503030104020403 0305020401030303 0304020201030204 0100040003010203 0401040303030300 0102010202020005 0102000303010503 0204020101040405 0202040304040505 0200030304020301 0201040201030200 0200040101000104 0304040103020202 0404010000030203 0005040400020104 0304020201040101 0505030100030402 0505000403030202 0502030302000300 0102020400020501 0501040301050502 0503010002010401 0303050201000104 0203000301040003 0203020102010200 0304020204040403 0203040300020204 0101050001040204 0204010403000503 0401030105000202 0501020501040103 0400010400030102 0303050304010002 0104030403030403 0202030404040403 0301000501030202 0205030402020201 0302030102000202 0004040401020103 0003020403000503 0302040301040004 0402010401010205 0202020204000102 0304040303050403 0303040204030203 0405010303040401 0201000300010004 0203010500010002 0001050001030204 0303050101020502 0101040404030404 0304020102010301 0201010402000200 0401040504040303 0104030304030301 0504040501040101 0403040000010303 0405030001010203 0202050305030104 0302020203020302 0500010102030304 0100020301040304 0202050405040002 0105050301010205 0103030103010402 0200020201020204 0302040201000304 0201040304040402 0405020402010201 0304020501040302 0403020104020504 0104040400020305 0403030305030301 0202000500010404 0103020404030102 0103020101030504 0001010201010103 0102050104050004 0103020101000401 0004040404020505 0302040305000105 0504010302040204 0405030205030302 0103030103050301 0203010403030100 0404000203010403 0003040104030202 0003050405040202 0501020502010304 0304020304040304 0300020503040401 0503020402020200 0105020102030502 0500050002030205 0402010103010105 0201010304030503 0304030405040201 0103010200010300 0104020100030403 0205010404030303 0402000504050403 0300010104000301 0400000205040302 0303030502030504 0402030301020404 0402030104030202 0302040201020500 0203020402010102 0001020103020402 0502000201000204 0002010201040101 0504000402010402 0201010305040101 0202000404050001 0304040103040004 0402050404010405 0003020203050404 0501040305050502 0202010403040405 0002000202050401 0502030101040203 0503010404040300 0101030301040201 0301050201020403 0101050101020304 0203020201020202 0202000104030302 0201020201010404 0404010100050303 0200030501000404 0401050204040204 0201020301030401 0300040302040103 0400040302010401 0502000105050502 0302030403040303 0101030300020401 0403030102040301 0305030202010003 0403040501030100 0303020401040305 0403040302030502 0401020403050201 0105010404030302 0402040202040404 0501030103020405 0200010400030504 0102030104000201 0104050503040002 0303010301030500 0204020405040403 0201040004010204 0401020104040505 0002000402050000 0505030402050102 0503030101040401 0401020400050203 0302050202050303 0005010203040502 0103030102000101 0100010001000100 0305040300040503 0104040004010504 0203020202010100 0502050301010404 0400030101040102 0403020400010405 0402020204010301 0103050105040302 0204030102030404 0204020200020004 0203050303000001 0102040201030402 0104040404000401 0304020404010201 0402050204040202 0200030401020104 0104030403020305 0304010204040101 0403000202010003 0402030103020502 0500020504020504 0103010401020204 0304010300000304 0305050401010505 0004010100010401 0004030300040402 0201000303040103 0202030505040101 0305010002010504 0301020404010102 0303030504000302 0203010204010202 0502030503000202 0401030102010101 0203000202020302 0001040205040504 0304020204050200 0105000204010403 0403030302020402 0105030203040003 0401020402020001 0401040301020202 0402050105030203 0303020103050102 0400000003040501 0503040404010501 0303020304010103 0501000100010501 0301040303040100 0100000101000300 0205040404050204 0202010302000101 0201050400030402 0402010503050101 0104040501040304 0503010404020002 0304020101000200 0004010302030403 0305000501020103 0202030100010404 0303030405040401 0202020202040301 0501030104030405 0103000101010505 0402030101000304 0404040103010302 0103050302050101 0202050401030203 0105010403030100 0103020304040304 0104030502010305 0102020305040403 0305020304000402 0404020002020103 0103000001050402 0202030502010301 0403030102040203 0102030302030302 0201030204040301 0103020304020301 0101020301010305 0204040401010103 0103020105020301 0402030402030303 0202050304010201 0102000005010202 0204000300030103 0302010300030201 0402030400010403 0303030404020501 0501040201030105 0303010300040404 0300040104010101 0300050503040203 0104030102000104 0303040205020301 0203040204030301 0403020304030101 0303000202030303 0402050403030304 0203020001030404 0202050303030405 0103010403000104 0405030500010102 0203010404010503 0501010202010105 0202020205000102 0202010302050202 0402050200000000 0401030401010003 0100000101050002 0401010303020003 0301020001010404 0103030501010400 0104040001020102 0502010304010300 0203040001020502 0303030200030101 0402050203020203 0402040001020205 0202020501000304 0002000500030301 0305040300020103 0102020203030105 0500030203040103 0301040105040404 0003010105040304 0403020304030503 0003000004010301 0401030201040500 0303010105010201 0202010303010401 0103000202030402 0103000105030403 0104020402040105 0404040503010003 0101030103010104 0100030502010402 0301030003020202 0100010303010104 0300040505000404 0503010302010402 0302010200020000 0105030202040204 0302020405050403 0202020103000303 0204040303030105 0304030402040405 0402040504040104 0404020502030500 0304020402050204 0003020402030303 0103040101040404 0401010203040404 0301050405010301 0300040202030504 0304040201020300 0402020202030303 0502020203000405 0402050102020303 0102020300020202 0501000202050401 0000000200040402 0505040304010003 0105020103000504 0502020100030405 0201010300000103 0302040202040403 0403050104040204 0403030101050001 0101020303040302 0301030105010400 0300040302030104 0202010402000104 0401040402040104 0005020204030502 0304020104010304 0103020004030001 0302050504010501 0201040404010102 0004010404040503 0403040401050503 0001040404000103 0504030004020504 0500040302020405 0501010502010104 0401010002040303 0301040100010302 0501050202040303 0500050403020202 0101030401030504 0305030500010105 0402000204040504 0404020401050202 0200010404020303 0500030301050301 0204020104010504 0301040302020202 0003020301010200 0405000102030104 0504050500010401 0000040001010100 0402040404020500 0203020005010503 0302040202030003 0000050205010102 0201010100010405 0200030102020303 0202040104050504 0400010200030205 0203010301040303 0402000200030303 0500010505030202 0405010104040201 0004040204030405 0302000401030101 0102000402000403 0402030303020402 0100020304030201 0203000101040102 0501010104030103 0501030003020302 0304010105010204 0403050304020203 0003030404030102 0101030303030403 0301030102040200 0204000201010000 0103020402030001 0404000005030501 0004040203010001 0105030405050103 0202050001030502 0500020403030403 0203020303000200 0105030403000102 0305040204030401 0204050203020304 0102030301020402 0400050504000403 0300040100000304 0301040303010401 0203020004020105 0102020303000100 0300010301000401 0301030404040305 0104020202020005 0001030405030103 0503000300040100 0403050201040402 0402030102010204 0104050504030300 0202030403030103 0405000301010402 0504040303030201 0204040302040404 0000010204010103 0304040105040204 0304030401040305 0102020401020502 0202020203030003 0204030001010003 0003030000050001 0501030302040402 0303020205020103 0500030400030303 0503050105030003 0200010302050401 0401050203020201 0304010503020405 0100030001000102 0205000104040200 0402000102010301 0000030304040304 0401050101020101 0102040103010404 0102010304020305 0503030405020204 0002020401050401 0304040201040304 0201020301010303 0501040201010503 0504010305030400 0000040402020504 0302010403040401 0100030202030404 0204030201040303 0103030303020303 0203000303020201 0202020103010104 0404040503030302 0203030301030205 0102000102030502 0505050402030300 0200050101040300 0503050105010404 0302040101030304 0100010503010400 0303010403000302 0201010204040101 0301040405010104 0202050401020502 0102010204030402 0103050502040300 0103040302020403 0302050404010201 0302040200030001 0405040303020201 0403020102000005 0403010104050205 0303050300030102 0201010501050500 0403030403000003 0000030504040303 0100010501010304 0201050404010205 0504030105030201 0303010504000501 0400010201040302 0401000005050303 0101010403020202 0101050401030404 0403040205020102 0104010304040002 0202020501040101 0401000401030404 0101020400020300 0204050205010002 0405020500030201 0204050304030302 0101010401020405 0302000503020203 0401050103040203 0104020300020401 0303010004040402 0103000303050203 0401010204050401 0404050005030304 0103030403020001 0102010504030003 0105040202030304 0105010102040202 0205020401050404 0100020402040203 0105040200000202 0302040201020302 0300040204020203 0200010403050302 0203050204030303 0301040401010304 0002030103020404 0504020201030301 0401010203050201 0200030104020104 0400030300010305 0305050403040300 0404030202020100 0102010000050101 0001020504020103 0404020003010503 0200040503040201 0102050004000102 0401030002040504 0401010204020404 0504010404020202 0502040500010504 0501050501040301 0404020304050304 0104030501020002 0102030504020504 0203050504040300 0103020201000402 0303030405030101 0402040201010404 0302030501030204 0301040202030403 0201050103030200 0404030302030304 0005000301030400 0401020100010402 0304040103020001 0403000101030205 0405010402010303 0001020304030402 0003040103010003 0103000005030205 0204010103030405 0503040204000503 0101010403030504 0305020003000201 0102040304010202 0404020204010205 0304010104040101 0305040004040001 0204020205050501 0503010402020502 0402030503040301 0200030302000000 0202010104020305 0104040200010203 0403010301030003 0102000003010405 0305010401040402 0104030302030500 0104020502020400 0001020303010104 0004000501010302 0401010104020401 0405040302040303 0003030204010501 0103040203050203 0002040403030403 0304040202030201 0003040404040200 0502010104050403 0100010503050401 0001030505040304 0105020101030100 0101020102000204 0002040103040205 0003050204040202 0400040302000401 0301040205040100 0302030204020301 0501050304040103 0303010200040104 0302010001010402 0105040303050201 0400050501000503 0401020405050401 0303040301000301 0300020203030502 0204000402020304 0405030100040001 0105030002050004 0301030101030103 0002040402050302 0304030303020202 0103040504030505 0200030404040200 0502050200030100 0003020003000103 0200030200020405 0201010104030200 0302040502020201 0301030202050104 0201000304000101 0302040402000400 0102020001030205 0305010204040305 0202040103040502 0300010004030505 0303020402020103 0304020203010404 0002000001030301 0501020404030302 0003010402030001 0302010204020101 0204010503020105 0101030301050201 0202030103000400 0104040503030102 0204020003010504 0201000102010300 0104000001050101 0101030103030404 0101020403040004 0401040002010302 0301020403010202 0004020301030104 0201010004020204 0301030401020302 0102000201030204 0102030304030202 0401010202030301 0501010300000002 0302040503010404 0301050205050302 0504010401010100 0204050502040304 0102010503010004 0100010502020101 0102010401030402 0504000504030002 0501020501010204 0104030304040104 0205010301040104 0303040101050001 0204000304030505 0300040200000502 0100040300030005 0100010105040301 0502030103010001 0302040504010403 0404030102010102 0001020200040002 0402030001040204 0003030304010202 0305020201030501 0003000405040202 0502020302030003 0102040403020102 0202050303020304 0305030505000402 0204050002030002 0404040405020303 0305030101050103 0201030103010403 0104040202020203 0104010104020400 0204050301020103 0104040404040302 0101010404010503 0202030104010200 0205010402020302 0002030301040103 0003020302050401 0404030001020303 0101010202040404 0300030201030401 0305010303020401 0003030501040201 0200000200020404 0300010303020304 0303000502030403 0001020401020303 0100030403030405 0503010102040104 0202020502010404 0405010405000102 0403010303050203 0504030100050401 0101010103050100 0303030201030305 0300040302040103 0104020302040000 0401020403030101 0303010300020003 0504010104040101 0101050300030204 0104020403050102 0202010305030002 0001030104020504 0002040002030504 0205010105020504 0402030402010104 0304020401010104 0003020301040004 0102050100050301 0403000005050402 0403010300020205 0100030101040300 0101020304010101 0302010100000403 0002040101010205 0305050302020104 0104030203000102 0503050302020202 0100020403040105 0205020201020204 0403000203040103 0301050402050003 0302010404040505 0101050400000104 0001000403050104 0401010501010004 0102040302040402 0302040501010401 0202050203020402 0403030505010404 0202030400020200 0302030101030100 0204020400030405 0301000402040103 0104010402040301 0404020003020203 0003010303010104 0203030005030302 0402040102020202 0403040302020303 0001010304000203 0003040304040504 0302050404030104 0405010305030105 0303030200020202 0001030405020104 0402030403020302 0204030202010101 0005000500020100 0301040303040202 0402010103030105 0505050303020000 0001030102010503 0104030201010200 0203000102010200 0303010400050103 0002040303050505 0305010202050502 0403040004040303 0401030400020102 0402010202020503 0002020103010504 0104050404030504 0401000105030401 0002030004040002 0401020302050400 0400030304040203 0102000403010303 0203040304030501 0304020500000504 0000010204040403 0001030200010001 0202050103050200 0203040104020300 0203050102050005 0101030402010202 0301020103040101 0403010305040503 0303040103010504 0201030300040501 0101000402010502 0504020003030503 0405010102020300 0104000204000501 0301010102040104 0402040501040204 0402050204020303 0302020301000305 0001020500040302 0105020301000500 0401000103030002 0402010505010101 0001030005050404 0300030105040400 0401040303030502 0201040303030204 0101020302010301 0102010103040304 0405050403040202 0404000203010404 0002000501040103 0300050104000104 0300010301020203 0103040403030103 0303030301040302 0205020404040105 0201040304030402 0403030203010401 0403010203040303 0301040301030303 0402040401020503 0103020101050405 0401020404040504 0302000404040505 0105010203050102 0504000302000505 0003020103000002 0204040000040003 0103020503000300 0400000405000404 0103040001000304 0201030500030300 0504000400020302 0002020202020301 0003020202030002 0301040203040502 0200030403020201 0101030202030202 0101050403050101 0302010403020202 0101030204010003 0003020404020302 0001040503050304 0302020104040404 0103020301020204 0401030101040304 0102030501020002 0303010200020401 0100020301040503 0200010201020404 0104000104040101 0104050103020405 0403020300010202 0400050401020301 0102040303040102 0001020401010102 0201020401020305 0201040303020105 0501030500050102 0100020002000005 0404000504020001 0003020402050402 0203010102040502 0201010102010205 0104030201040002 0402010304030105 0500050103050403 0102020101040302 0402040100030402 0202010204020302 0200040401020504 0303030403020302 0401020103010405 0303020505000401 0203000303030402 0205020505040201 0400030301020104 0104040504050501 0103020502010303 0301030200010501 0402020204030503 0201040105020400 0104040504020103 0002040002010202 0202020302010201 0101030200040204 0101020403030004 0204040202000003 0400020404010404 0504030103030202 0305010302030503 0104030203010302 0301020201030304 0403050403030002 0204030103020302 0003010401030404 0305010400010305 0502040402020100 0201020203050203 0305020301030202 0304050204030405 0102010303010204 0105030403030503 0300020401040402 0104040202030104 0403010205050505 0202050100050202 0400010101020102 0401010103030201 0200030504000201 0202050104000402 0404050101040501 0102010402020301 0403010200010402 0203030304000102 0301040303030200 0003020201020403 0302050402040000 0304000104040201 0201020003020301 0001020302020001 0403030300010302 0302050403030203 0401020203000303 0105050104010202 0402000505040405 0404000101030004 0104010404040205 0404020203040305 0503020203010303 0005040101010204 0403020305030103 0303010401030304 0401010501020101 0404040202010104 0300020201040402 0000040303050405 0503030105010101 0404040305050200 0103040204050203 0302030102050001 0103020203020301 0302030000020000 0401030303010105 0203010105020204 0202040105030501 0305020300010101 0401010401040403 0102020503050101 0204030103040304 0003010401010304 0103050404030503 0202030101050302 0303020202030403 0304050502020003 0404050405000503 0300050303050204 0101030104040403 0203010400010201 0101040403020404 0301040203030104 0301030504030402 0503030101010501 0501040304040305 0301010005020103 0101020502020201 0101030305020204 0402000002030401 0200000102020204 0403040101010205 0004040302020101 0304020300030403 0300050105020204 0404030403030101 0304010103020305 0205020301040302 0103050301030101 0304030101020402 0503020003030300 0201040402000000 0305030201000100 0402050303020401 0004000301010401 0402000303020001 0105030305010204 0100050504020203 0504040000010300 0403000002030404 0004040303000201 0401020504040202 0104030401020205 0403030100020404 0404030501020205 0404000203030205 0103040201010202 0404020102000404 0104030401030401 0402030105030104 0200040101030502 0203030201010502 0103030104040501 0505040002020501 0202020301030104 0200020301040304 0404010305030402 0303010102040401 0101030503040201 0001020103030201 0100050304010101 0202020004020300 0302000204020501 0402000202010004 0503000402040302 0502030405030203 0104040103020103 0203050401000104 0203010400040003 0201040100030401 0001020202050203 0101020301030104 0301020204000305 0405010103020303 0502040003030105 0102000500000102 0200040102050403 0302040505010502 0303030504050201 0102010301020300 0104030403030102 0405040205000105 0201050104050403 0001020302040201 0104040104000201 0304040201020401 0202030404010403 0201050003030102 0301040104030104 0400030201040402 0201030002020004 0203010403050001 0104030304020005 0303010401010201 0003020200020202 0205020003040404 0401010100010301 0202030203030100 0205030203020405 0304040504020302 0102040303030302 0301010101040204 0404040101030203 0400010104020101 0105000004000402 0101000503050403 0301010001030001 0303000303040305 0404010103030102 0301010203030201 0502020203050100 0103040303030200 0401030203010305 0003030505010104 0202020301010300 0205000204020401 0304020500040104 0202010005030002 0400040403040401 0102030404000203 0104000204030504 0501020303020101 0302050103050303 0100010405010101 0203040004030005 0302040201020002 0303020304040205 0303000403020202 0202050200030502 0401030103030104 0302010504010203 0103020204010404 0302020501030503 0105030401010403 0503000101040302 0100050205040201 0202030403010303 0103050202030204 0405000402000204 0305000205040305 0500010304040302 0203050102050001 0301020301050301 0004030102030302 0402020105020103 0101050202050301 0400020403020101 0000010103030505 0401020502040401 0204010504020300 0504030104030404 0403040300000104 0304040001050000 0501030103030400 0404000005020505 0503010301020504 0203000203020404 0301040303040304 0204030300030301 0302040503030502 0303020002040104 0403020002020401 0103030003030401 0501040402020101 0103000102010501 0303010500030204 0400020102000000 0002050403010302 0303040204030102 0500010103020203 0003020003040102 0205010202020304 0301040301030002 0404010004000203 0503030302020302 0201010301020105 0403020303010504 0104050303040203 0005000001000103 0303010502050103 0000000301020400 0205030101010002 0002020104050405 0402020002030103 0404030002040103 0400030003030201 0200020300000204 0102010100020505 0401040303010302 0302050102010001 0401020305030405 0402030204040202 0304020503030305 0003040004010401 0404020304030501 0204000202050403 0203010401020302 0000050303000101 0104010002020000 0400020202010301 0001000401000101 0402000004030001 0204000403030105 0501040202040204 0204040304020104 0404030203010403 0405000300000401 0503030100030102 0504010302040300 0200010202030103 0304030200020404 0100040101030404 0105030102030102 0305010103030301 0103020400010400 0300030300030302 0002030502020402 0303050102000203 0101020404030305 0503010501010004 0404000205020000 0001020201030105 0504030403020302 0101050103020303 0302040304010204 0401040201010201 0303030005040405 0300010003010201 0001040205020204 0402010201040302 0002030402030402 0005020104040305 0403030404020202 0301010201020303 0200050404020400 0201010404010500 0101040003020102 0201010104010404 0403040401010400 0503030304000402 0401020004010501 0505040400020302 0303040202030403 0303010101010203 0001040501000301 0104000104020502 0302040503030401 0501050102020402 0505020401020004 0405050202000202 0502040404030202 0400010304040003 0100010103020402 0302000201030301 0405040105030103 0103040201040404 0205050205000302 0405040102010402 0201030003040301 0003010304020301 0200030001000402 0504010202010302 0102000101030401 0102050302030005 0103040504000505 0102000303010000 0103040501000003 0401030402040404 0502050301050103 0404040202030103 0304010304010204 0003030304040404 0403030103000201 0401040201040401 0302030403030402 0403050304030505 0405040401030302 0203010100030503 0103030505040202 0301040204030201 0003040402050401 0101020303010302 0004030103010204 0305020404010204 0305050502050400 0303030001020002 0002040303000001 0304030205020405 0204030100000301 0302050202030302 0101010301010203 0203010201030203 0303040102010500 0102030002010402 0104000405030105 0303030002000405 0300030305030401 0200020500030401 0501010102010003 0303020501010401 0401040205000104 0404030303010202 0205030404040404 0203010405020101 0405030101040504 0204040402050202 0400040303010102 0202010102050304 0403040402050303 0304050001020403 0205050201020301 0101010101030401 0203030100050103 0001030503030405 0202000205050202 0202050301040203 0103010001010505 0403030201040304 0001030303010205 0501030100040302 0304010205000302 0103040102010304 0303020403030104 0405020403020404 0003030402010201 0001050400000501 0200000203030204 0305020201000404 0202040101020503 0002050003030302 0302020502040402 0305040002020101 0500020205040104 0402030101010302 0102050405020104 0403030102020404 0301020203030201 0304010501000405 0404030102040000 0405020203020102 0005040305010303 0402010501050202 0400040100030301 0100000001050403 0303040300030303 0103030401030504 0400030001020503 0303040104030202 0103040304040000 0403010401040302 0204040202020401 0103040502040403 0103040102040304 0002010502010000 0501000404020302 0004000205050303 0101000400030403 0401010403040102 0400010501020200 0302010200010204 0300020004040301 0303030100040101 0403000403050104 0501040104020105 0103040303000201 0000030303010401 0103040400030104 0301040404020401 0502030305050104 0203020204010201 0105020104030302 0002050301040401 0500020202010404 0302020401010104 0501040505000403 0405020100010203 0001040104000201 0203010503020304 0102020303010202 0503000201010402 0500000305010502 0501040401040302 0305020404010502 0104030002050100 0404050203010400 0101010102010305 0402010304040204 0103010503000504 0103020403040001 0305030504040402 0300000402020301 0101040202030501 0204030001030405 0203050503020003 0101050302020302 0101000103020103 0503040205000402 0205040400000404 0300010201050201 0303030402040403 0402010203000503 0401020301020103 0503050205030505 0201050201040500 0403040304010500 0204000102020404 0004020304010104 0004040404020303 0401010403010204 0403010503020205 0301040401020301 0102040402000300 0101020101040201 0404030405000305 0204000101050204 0301010102020001 0503010103040002 0203010303010303 0000020400000502 0501040300020205 0202000402000004 0002040404050000 0100030101040405 0303010202020402 0301030104000305 0101010301050302 0202000502050200 0301010402010200 0101020104000405 0100050002020505 0401030004010205 0403030402030504 0302020505040300 0204050304040000 0401040203010402 0003040200030504 0205020002030103 0404000305000301 0104020501040304 0201040501020203 0205030202040105 0104030200020402 0004030404010303 0103040101000002 0100010103010004 0204020201040003 0000010501010102 0203040102050505 0304040103020201 0302030203030004 0003040404030102 0202010204040304 0200030303050300 0103040002030101 0403030402020500 0301020000050204 0403050501020202 0403000201050502 0502040302050005 0005030305040503 0403050200020304 0101010201030401 0103040202020501 0104030305040102 0204040404020204 0404020103030501 0203010201010402 0001030104040302 0403030001030401 0304030500010203 0304010102020404 0102040102050004 0302010402040101 0204010203020203 0505040201030500 0303020202040301 0205020401030403 0303000400040505 0102040404010202 0305020403020301 0503020004030204 0501040303040502 0501040205020104 0204030103020102 0104030403010002 0301020103040504 0505000502010504 0104050400030103 0501030104050102 0303010401000404 0403020103030101 0002030305010304 0302010500020000 0204050101040200 0302000402020000 0201020502050401 0200010303050302 0202010503010504 0404030205010101 0500010003040403 0201050304000005 0203010403000502 0102040303000502 0103040401000104 0400030502030205 0402010500030404 0103020404010402 0504010303010404 0102020204050203 0102040102040202 0203020100020401 0502030304040302 0100020300050203 0202030302010203 0002050301020402 0305040404020102 0003040304040305 0204020100040300 0202020404040303 0304030202050200 0404020502000103 0501030401030203 0204010000020100 0403000402030101 0203040202010004 0405040104010305 0402040103000303 0505030202050304 0204030003010402 0304040501030200 0303010202040200 0503050203010403 0102040002020303 0301040202010300 0304040401050005 0401010205040303 0104040300030204 0503020202040401 0301020504000103 0002040204010502 0104000204000501 0400040200040204 0103010404030304 0101020002020202 0100040204030501 0501050104040001 0303000403020202 0502050202020304 0400000204040002 0103050201010401 0005040204010200 0300030001030100 0101020303050300 0305030301050401 0000040405000102 0102030100040402 0400020004030304 0403030500050105 0400010101020304 0202030304020400 0102010503020301 0304000503010305 0303010104040301 0303050500010003 0104020104000202 0300010104000203 0402040404050000 0401030503000403 0505020002030005 0404000001000502 0203020104040002 0303020202040404 0103040301010403 0305050204040204 0205030201030003 0400040104030300 0401030303010004 0404020304000300 0201020004020402 0104040500010202 0205030401020200 0201020203020305 0301040400050404 0302040000030404 0300020301050201 0401040401000302 0101020305010405 0203000402010304 0305020300020301 0504050501020003 0400010004050404 0205040202040204 0100040203040302 0204020303030405 0401010402030205 0300010300010003 0205050302000005 0402000203030103 0204050203020203 0102000102040303 0303020000030301 0301030105010502 0002020401030302 0101030304030201 0103030101000103 0102020304040305 0204020405010305 0304000400010102 0001010001030104 0301040002020105 0201040203020401 0404030403030301 0203030202050400 0101030401000404 0301040302030104 0403020402010203 0003020303040402 0402030505050003 0302040303050302 0303040001050002 0100000004040003 0404030202030300 0100020102020305 0102020200040104 0503000401040303 0003000501000403 0404010201050303 0201040101020103 0004040304010104 0401000203030403 0502040504050204 0205010102040505 0102020205030202 0205020400020205 0003020204010505 0103050303040405 0203020102010001 0403010202020400 0303030403040000 0401030201000102 0004010302050200 0203030004040101 0202050200030402 0104040202040203 0202020100050303 0402010303050401 0303030203040102 0501040301050300 0505020001040205 0302050201000102 0104030404000204 0402030202010003 0403000103020304 0404010201050202 0303050005030102 0101020402010104 0203010202020204 0102040302000402 0303040402030303 0203040302010404 0305030304040304 0204030204040300 0203020104050401 0403030202030202 0302010305040204 0402010105050204 0302010501030005 0301000301010303 0301040501000202 0001020303010505 0102010103040401 0400010301020404 0305030304030202 0204000503010505 0103030001020103 0401020405020302 0300040004030403 0400020302000203 0005010301040101 0404030203050101 0203040205020202 0203040005040503 0401040100010102 0204050502050401 0502030000010105 0204040502000405 0303030104040204 0101000202040301 0103030200030001 0105020103030102 0003010203000403 0302010405030403 0203040305030001 0300040403030301 0005020504030304 0002000305020005 0402020104030104 0103050003010202 0000040201020100 0201030305020402 0204010403030005 0403010202030403 0200000303040102 0303010505020300 0203030205040404 0202030500040504 0101030304030104 0004020205040502 0003000203050405 0103030300020304 0205000205040202 0402010102020200 0404040104050302 0200020203040502 0404010204030000 0402010103000301 0002030104010200 0201020300000404 0403020505020303 0004010203030101 0405000000040402 0303010103020502 0101010402010405 0301000103050102 0404020200040104 0103020305010300 0102030202030303 0303020305020502 0103010302040403 0505000101020503 0305020101010000 0302010303020104 0101000104020200 0502030102010401 0100050102010301 0302010100020103 0201030303050404 0300050205030100 0105010402010200 0202010304030104 0102030302010103 0103030403020002 0103020103010200 0205020104030303 0202020505010301 0200030303020201 0202030305010302 0403010503030105 0102050402050302 0002030305010305 0205040201050100 0404040101020204 0302040401020301 0003010401050101 0101020202040404 0505040304030200 0201020101010502 0204010102030204 0304040202020201 0004020402050003 0103010304030402 0302030302000001 0200030003020203 0001000402040301 0002010203010201 0002020302030400 0302040203050100 0304030302030404 0401050102040304 0304040404030203 0004000102050201 0205030504010102 0400000301020300 0201020404000305 0004020205040303 0303040403000303 0102010404010301 0003020304040403 0103010500040102 0303050505030301 0104030202020402 0402040202020400 0201020201000402 0304040400040305 0205020304020204 0203000102010202 0503040303000103 0401000104020304 0503020402040504 0400020405010502 0402030101050402 0201030501030201 0403030303050401 0304030304000204 0404030501010105 0202030400020502 0403000201040402 0404010305040102 0203000402020504 0503040302000204 0302000102040103 0200010001040403 0403020301020204 0101020001050100 0403020402030301 0103040000010305 0105040102050104 0102010300010101 0204010501030403 0104030104040203 0201020203030104 0303020003010503 0102040403030201 0003040101030303 0304040402010105 0200030403010505 0205040200030502 0201040202000101 0204020101010404 0304040304040103 0401040401040004 0503010305020304 0302020205010404 0203050305040003 0301030300000305 0103030104050104 0103040404050300 0102010000030201 0002020404040403 0204010301040000 0500040500040205 0105020304030305 0403040105040101 0303030402050101 0101040301010100 0301030405020200 0002010404020203 0302050304050104 0402010402020205 0102030401030201 0505040505000001 0003050303040202 0302010204040004 0103010302000101 0201050201030105 0202020202010304 0302030104050102 0102050103020300 0301000304040103 0101030405000401 0200010402030003 0200000103020102 0401020103010400 0400010401000403 0401030305040304 0402010102010404 0005040503000204 0200030301020503 0104040201020000 0201030402020102 0105040204040501 0405040402040402 0101030402040002 0302030402030001 0302020404030400 0302040100010505 0200030201020402 0101050003040204 0401050305050501 0001000203050005 0002050404030102 0303040201020300 0003030100030002 0104010203030300 0301040302010005 0001030203050402 0403030204010501 0201010401040104 0001020301040400 0102040404030101 0004020202010003 0204030205040203 0301010401010302 0304020004040102 0204040100000102 0403010204040205 0003040401010102 0102040205040304 0102000400030303 0402010201030302 0001050205010001 0101010301000101 0401040102000303 0301050103030403 0402010403020401 0300020201040503 0402010102010205 0300020102020503 0004050303010102 0000010204050304 0300050101040102 0201040505010301 0204010400010300 0102000003010300 0101050102010505 0004050405010401 0501010102040504 0400010203010204 0003030403040201 0102040403010001 0105040303020101 0501010505020303 0504010403010204 0504030404050102 0202040401010501 0004050301050400 0201040203020201 0205020404040402 0503010402020402 0303030003040405 0204000002020304 0501020001010103 0401030200030105 0201010204010105 0403020001030503 0301040303020402 0504030005020102 0505020200010404 0101010305010104 0404000304020204 0000020302030302 0004010201030404 0403010204030300 0002030501030204 0004000204000203 0303010402030302 0104010504040005 0103040203010201 0403040202010204 0404020001040301 0504010403030001 0402030403040305 0003050102000202 0200020404030102 0302030005050303 0204020003000400 0304050402040102 0204010005010402 0401050200000203 0403010204010501 0204020404050101 0504000000010201 0103030201010305 0302040102010402 0104000302030102 0103020405020502 0303050302010104 0303020400020300 0404040101020203 0102040300040402 0505040003040300 0304030405040101 0404010103010300 0103040104000204 0101010403010302 0300040203010404 0402000202040200 0105050105010305 0403030403030203 0201030403000102 0103010204010404 0400000404020504 0302000204040402 0405040402010401 0404030301040300 0105020101040404 0404050403050203 0502000103020502 0304020204040501 0401030404050201 0400000103000304 0304030200040405 0103030101020004 0204000304040301 0003020503020302 0305010302040204 0204000302050103 0503010404050400 0103040403040001 0201010205010201 0301050501010203 0201020205010004 0504050004000200 0303040104010204 0401030402050403 0102010305040405 0303020401030204 0102020300000303 0402000301010105 0400050204040502 0101050202040104 0001050404030204 0202030203030104 0101050304020300 0104010205020202 0103010202020303 0104020402030402 0004020100050200 0202020305020203 0303030201050501 0203010304040101 0204020305000105 0302020205010301 0301010404050103 0001020504030401 0304020203050105 0102040204010201 0104020302020200 0402040403010404 0104040004020403 0302020205040302 0502040103050401 0502020104050202 0203040204020200 0103040205000404 0204040103020102 0205020205030304 0502040401010204 0004000500010401 0503000204010404 0104030001020002 0200030302030204 0101020301040400 0305030103000201 0402030004040301 0201040205020101 0301010402050204 0101010202010101 0200040404020104 0202010304020205 0402040004030002 0204000403030301 0104010105000101 0304020101010305 0402030403000302 0105010304030301 0200010003010305 0204020101040304 0000010503000101 0002020101000301 0002000001000003 0304040105020003 0402030304030202 0300000502030101 0400010005000201 0403040304040401 0404020205040503 0002040204040503 0402040505040403 0504020103050501 0202040003040102 0300040103030004 0302040401040401 0103040405030201 0100020201050403 0104050101010302 0100020100020101 0101050301040204 0202050203040200 0202040302040505 0302020105020202 0304030204030000 0102030402050301 0304020502030502 0301020202040004 0104050502040300 0401020400010301 0002000303050100 0000010301010504 0104040303050103 0103010304050202 0201040401020100 0405010405040202 0500010103010401 0103040503030104 0303010204040301 0100030205010303 0401000302020503 0001050201010104 0200040400050002 0302020003020101 0505020403030000 0403020301030304 0505010405040201 0004020402000002 0103030504020300 0304040204010002 0303040505030102 0501010400050401 0405050304030003 0300040103030100 0401050102030301 0203000302040204 0105010300040501 0205050503010500 0202040501020204 0404030001030202 0201030002010004 0203010000030104 0302000101040401 0304040302010401 0303020202040102 0304030304020102 0401040104040202 0501000201020003 0203030504010201 0303020501030404 0203030505020205 0102030105020503 0202000304050200 0000010505000204 0102040305050302 0302050205010304 0101020302020404 0301030305020202 0104040502040204 0003020105040101 0402020102010404 0403020004040001 0303030305010501 0103010101040304 0200050103040503 0404050001000401 0305040400030200 0101020501020204 0302010304020302 0402020300010101 0502040502020501 0202020401030200 0203040401050204 0503010402030104 0204020102030204 0204010302000205 0304010502010202 0203000300000505 0203020403030005 0105020102000004 0202040200030300 0302040105030003 0302000404030503 0102000301050201 0004030401040305 0104020201020403 0300010303030402 0400040204050303 0203040102030003 0404020303030101 0403030304040302 0104010403040005 0104010403030402 0302020104000302 0304020503010403 0403010301000505 0305040401030104 0203000101030201 0403020002030204 0405000101050302 0302000203050005 0404020101040405 0102030401010401 0302020103030203 0101020101030103 0404030103020004 0402020101030304 0004030202020004 0504000103020202 0501050205050101 0202010003020103 0404010203040004 0300030104050203 0101000102010403 0402040302020304 0303020401020000 0004010103050501 0401000004010204 0203030401040404 0201000200040301 0505020105010302 0301010102050403 0100020000040304 0405010305010401 0301040302030403 0104020100030103 0305040303040204 0205050203020301 0302040003020201 0201020204030404 0303020104020104 0004040500030402 0201040300030401 0403010303030002 0403050203010403 0303020505050202 0103040203030401 0104010201040003 0500030302010201 0201040505040504 0101030302020204 0005030301010101 0104040505040103 0504040400020104 0004020200030302 0101030202020204 0503000003040205 0003050102020203 0304020102030202 0101040401000103 0501030104030301 0305010104040002 0403010100020001 0201020001030205 0400040504000003 0104030104000303 0001000402010105 0305030100040004 0404020103030504 0203010504030202 0400030503020000 0105050504020204 0402030102010302 0005020104040105 0202010303040100 0203040302000204 0200050105050404 0405000504040204 0101000201010302 0302040400010502 0401030400050202 0401010302020103 0003010305010403 0202030204010001 0201020300050205 0403030103020301 0202030204020202 0401040203020402 0301020405030501 0100020500030505 0104020302020402 0305040103010002 0104040202020005 0405040401030202 0204050101040101 0304040402020104 0402020304040103 0203030402010105 0303030204020405 0202010204000200 0403040404030200 0001030004050404 0204000405030401 0305020105010504 0502030204050103 0102020502040303 0301030402000302 0402020202010502 0301040102030500 0302010105040403 0303010503050403 0200020004040004 0002020304040502 0100010202010000 0100040500020304 0100010203050105 0502030401050404 0200000203040404 0203010302030103 0400040203020102 0504010304020000 0501030300020304 0404040001010102 0502050305010203 0004010105020101 0104040201040502 0002040402020303 0002020404030300 0404040304030303 0203040104040100 0100010101010302 0205000103010005 0202020203000002 0101050201000303 0505020101000403 0102050504020004 0104010201050102 0302010204030104 0004030201040003 0202040403050201 0303040101050202 0404020302010100 0203030402010203 0302040504040203 0202030100020403 0204040301030204 0303040101040303 0002030102030104 0304040002030103 0504040401000305 0504040105050002 0302050203020305 0503010005020103 0402020503050103 0302030204030202 0002040403030401 0205020303010402 0402030202020400 0401030405010503 0103050402040301 0302010002020302 0103020403040204 0402000405040104 0405020101030203 0303000301020202 0105040202030000 0104030003010403 0204000403020301 0402020402010504 0401000503040503 0504050304010101 0402020405040504 0203040304020403 0403050302050402 0203030402010405 0303000301040000 0502010301030503 0501020300020401 0101040101020203 0003040503020401 0200030203040302 0302000003020204 0502040300040400 0302040205040201 0303030404040304 0103010204030105 0304000203020102 0104040403000002 0501010201020101 0203040204020401 0405050204050102 0102020102020102 0503020202040404 0301000104000304 0304020401030302 0300010003020104 0300040502010205 0501010003020302 0503040102030302 0302010403030200 0101030201030303 0503010305040401 0302030403010004 0400040300030302 0101030304030204 0202020201000204 0500050104000504 0503010401030203 0503030401050304 0500010403040001 0200020204020005 0402020501010101 0503010405010401 0301030201030204 0302030403000102 0504030301020201 0104020403030502 0203020502000301 0200010304010201 0301040500000401 0003010304030101 0405030302050404 0304020102010303 0201020504030304 0202030301030303 0101030405050200 0104020202040503 0402010204030002 0004010402020402 0003030000010203 0004050103020004 0303020304030305 0301040305030405 0200000103040405 0401040401050105 0305030400020202 0304050404030201 0403010403010202 0305040101020502 0401020202030002 0102040203040003 0402030005040201 0001010001040204 0302010105020100 0101050304040204 0302010003010503 0302040301040304 0400010105020404 0401020403000102 0305040305010301 0302000104020202 0002020300030503 0503040305000001 0300010504020204 0000020000050202 0102030004050303 0201020005010503 0305020100050101 0303030401030302 0004000301020200 0400020004040301 0104030200000200 0301040401040404 0205030400010505 0003040104020202 0500010402050301 0201040403030402 0305040401030001 0102020005010103 0101040505050003 0005040502010100 0201020504010404 0502010103040404 0202010104040201 0201020300020504 0105040000040203 0105030401040504 0404030102050001 0101030002030305 0003050200020003 0405040203000003 0502000203010505 0202000000050401 0003020101050201 0404020103010403 0405030103020105 0200030300020201 0100040100030102 0405030005030203 0401030204030102 0101040402010101 0204040003010402 0403020302040305 0403040401020103 0301040104000200 0502040403010103 0201040002010005 0302010403010403 0104040502010403 0505030005020401 0402040100010204 0103050204020301 0401050405030403 0204020104040105 0204010104000405 0000010001040202 0301040403010302 0200010103050501 0302020404020203 0202010005050403 0105010402000405 0003010302050301 0301050203010000 0205050403020302 0503050100010102 0204050401000203 0100010104020103 0302040302020201 0404000301000104 0101000202000002 0303040204030205 0503040202040404 0404030102040102 0104030102000104 0503000201000101 0202040203000004 0104050102050404 0002050505040203 0203040300040503 0300010203030202 0401010402040303 0201020102040205 0203010301030002 0003020004000300 0403040502020300 0401010203010403 0401040302000402 0200010301010105 0100020102050503 0401010401000304 0101020202040304 0200030403010204 0302010401050402 0202040204000401 0503000405020102 0103000505030503 0303040500040401 0202010205010303 0401050102020302 0302050201010001 0101040305040304 0101040200050203 0301000201010403 0304010501020104 0204010000030504 0202050101020501 0304010304040100 0301020204000401 0404040201040301 0301030403020504 0202050001040303 0502030404040004 0302030401010103 0404010004020301 0304040004020301 0301040102000404 0200050403030301 0105040505040103 0301030502010300 0000050300030102 0101040102030001 0401030301020102 0205040204010001 0401040005030404 0302040305030303 0201010005020401 0301020105020304 0403020400000105 0102020405040402 0001010504050202 0304040302030204 0403030104040001 0104010402010402 0100010105030300 0102030204050304 0401030201010305 0103040204050103 0001020104010005 0102030203020201 0204030104030201 0401010002020002 0503040100050201 0302010402030203 0301000101000200 0403010502020102 0204030203040204 0103020504030004 0204010201030301 0502030301020103 0303030203030400 0304010302040104 0202030304020301 0203050303020001 0404050005020205 0401020203010502 0202020104020404 0101050001010105 0103020504020402 0104010203000201 0203050403030401 0501020303030304 0003040504020304 0300020301000301 0204010404040404 0205030104020400 0401050003020201 0301050400000204 0404020105030003 0305030101020403 0203010502030503 0302030000040201 0403040403020103 0300000005050401 0304030003010002 0301040200040404 0504040103030501 0402000402010302 0301010203020504 0204010002010303 0401040400050104 0102030505010304 0400000102050402 0400020501050401 0304010403010301 0301000204030403 0401020204030301 0402030404040401 0202010103050300 0504030004020103 0200040103020103 0503020103030105 0305040300030002 0500040103010302 0204040100000204 0405010004020305 0201050303040304 0103000101020200 0301030103010401 0403010304010102 0305030001040300 0204040300000203 0002040402040402 0103010305030203 0301010104020302 0401030101010002 0400020004030304 0503000301040404 0305020203050104 0203040401040101 0103010102010503 0302050300030102 0100010101010400 0002040001020501 0203010403050400 0204010002010403 0402020003040402 0104000402040503 0502040501020103 0104030203010201 0501010303030504 0005030201030300 0104040302010504 0302000403040503 0200040004040400 0002000303010101 0400030401010202 0401020305050303 0304010401010501 0402000001010305 0101040301030201 0201020303030201 0402030502050204 0203030402030402 0401010203030400 0104040403040500 0003010200040501 0000010304050201 0404020205020302 0202010103050000 0204040302020202 0203050302040102 0302040201020303 0404030400010100 0304050402020104 0100010100040401 0405020203000300 0402000300040202 0105020502020402 0503010503040501 0304040101040502 0303020102030302 0102040302040404 0300010405040504 0103030100000302 0404010501030202 0501050003030501 0204040203020203 0002040002020503 0401030203050102 0404030404020402 0400000004010105 0104020403030104 0302050202010203 0403030202030400 0403040301040203 0205010103020204 0301010400040301 0104050403010201 0502050004010005 0102010402020103 0402050502020203 0402030402040405 0104010403040204 0400050203020203 0204030402020401 0303020302000304 0302030002030101 0504020502030103 0502050004020201 0304030201020505 0104020302030305 0102040201020100 0402010502050302 0102040001020402 0304040302040304 0200010000040104 0201040003020302 0305020302020504 0204030302020004 0405020305030302 0203020504040103 0202020101020304 0403040401030204 0203010304030303 0403040202020501 0304020102000300 0104010402020300 0500010103020002 0101020203020103 0404020405020304 0205050204020504 0101030004010404 0404040202010201 0501030503040004 0101050103040204 0205030204000401 0402020203010501 0200050202010301 0100010501000402 0204010105010003 0402050200050101 0103020204020102 0002040102020303 0201020105020304 0001010203010405 0305040405010104 0100010103010000 0201020100020500 0005030500000101 0203010501040001 0304000300020404 0504020302040201 0402040301030402 0502050202010303 0101040201030402 0103040100040104 0204030105050300 0200020201020303 0103040000000303 0305040304010102 0204030204040405 0403030100030105 0401020104010203 0505030101020103 0003030202050501 0100020105010103 0303040004020401 0302040201020200 0100010201020504 0502030303030103 0102020305010401 0003010004000001 0302030401030203 0005050102040404 0200030304050404 0101040505030202 0201030302020405 0305030302040203 0102030405010405 0401030402000204 0300040201040302 0501040501010201 0002050102040403 0504040103010105 0302040403040504 0505040104010103 0103010201010000 0502040302040001 0304000200030003 0005010103020101 0004040504050501 0402030103030305 0202010301010501 0303010301020101 0004040304010003 0101040201020402 0504040001020203 0104010403040402 0301040004020203 0302020001040001 0203010402010203 0104020301040304 0203010300020101 0000000401010400 0100030104010302 0102010302030203 0102040401010103 0304020205010202 0100010203040101 0505040200040504 0503020301010304 0001020205010403 0201040105010202 0300040300010201 0402020303000103 0103020300050202 0303050205020004 0201020305050100 0402010202020204 0502040204040201 0201030004010205 0002010202000504 0304040102020104 0002040102040003 0501020401030504 0302010402030401 0102010004040400 0005020004040001 0401000205010203 0204050203010103 0501040201030402 0104040204040205 0501030104010104 0502040201020502 0304040004020303 0101030202050105 0102030301040400 0503020104020204 0102050502020401 0000040501000503 0304010403040301 0103010200020004 0105030402010100 0304040505010203 0203010401000201 0401020002040302 0003010504030403 0503050101040301 0101010405040305 0102050303040103 0303040102020001 0402010104010002 0404020503010000 0303010003030200 0402030102030301 0102020001050204 0201040404020404 0105050201010501 0102010102010101 0300020002040300 0404020303000104 0003040404050302 0502010201020102 0404050401040103 0403020103030002 0202050401000304 0404020301040105 0102040400040404 0503030305050303 0300050104050401 0001050402050104 0001030404040102 0500030101010200 0201010404020101 0202040504040105 0003020301040304 0200040001030502 0201000204020304 0303040403020100 0204040100030304 0004010502050300 0402020300010404 0301040302040300 0303030101010402 0005010404020300 0102000102030100 0405020402040104 0503030205040203 0200030200020400 0302030302020100 0403010202020204 0303030503030304 0404010500020301 0200010203020302 0404020105000005 0203000001020304 0104020105020102 0205030002010501 0404040404020201 0303020404010101 0302030204040403 0201040105000205 0404040402010402 0002010203050205 0003050204050304 0201050405000202 0403040404050205 0003040102030305 0101020001010400 0104040301000001 0304050303040403 0302030303020401 0500050302000400 0102020104040304 0201030000000205 0004030003030401 0104050204030005 0004030203010404 0502010104010200 0202040103010103 0301040104020100 0000040202030204 0105040501030401 0504000201050002 0103040104010404 0005050101020202 0105030003010402 0305020303020304 0103020305020302 0204020202010305 0501040001000503 0102000004040101 0403020102020502 0203030202010100 0103020104050102 0204010400010302 0305050102010301 0405020205020204 0101050204030500 0501000402050301 0004020402010401 0503030402000304 0404050401010502 0304040404010204 0101020202030401 0102020301020101 0202040103010504 0402050501040401 0202020101030203 0501010404030201 0302010302040402 0301030205030404 0202010002040200 0401000104040402 0101010104030202 0000010205030103 0202030503030200 0102040401050404 0405050104020202 0101000004040300 0302030500030203 0402020102020302 0000040005040401 0301010502050103 0505040204030003 0104040403030005 0403040305020401 0300030203030203 0403040101020305 0502040301050403 0303000103040305 0301010404040504 0303030402000503 0103020200030104 0102040303050103 0305050401040001 0101000303050202 0100030202020101 0301040402020402 0204000202040501 0403010500040305 0203040201050102 0205040102040203 0201020404000301 0102040403040405 0301030202020402 0205030104010202 0203010002020501 0504020101010103 0104020103040403 0404010401050403 0304000303020103 0102000402010301 0403040402020402 0303040505000404 0505040503020100 0301040300040505 0202010005030202 0200010201020202 0402050004040402 0204050402000205 0202050200020503 0104010103000303 0102020301020005 0103030405050304 0102040401040303 0302030002000404 0401040400030303 0205030303040505 0401000402030203 0402030005040303 0400020304040003 0001040101050405 0403040303030302 0305010500040202 0104000002010202 0201010202040302 0405000104040303 0401030501020402 0304050004010302 0003050204030500 0104030400020504 0100030201040102 0403030403030502 0104010001030403 0305040000040202 0103030000050203 0100040303020102 0203030403030003 0203020304010101 0501000205010403 0301000402020302 0102020405010102 0500010204030102 0401020002040004 0105020101010205 0104010403040302 0505050301010304 0001040503020002 0102040205000104 0200020302000201 0301020303010205 0301010402050205 0403020402020204 0401050200010400 0303010300010102 0000010304000403 0204020200020403 0404010302020401 0401020400000201 0001040202050103 0404050102050202 0304030301030004 0302000403030203 0302020003020102 0001010102010401 0303030005040405 0404010103020402 0201020001040402 0102020100000305 0400030202010205 0103020100020104 0402040302020301 0004010002030305 0403030300020404 0205030303020201 0102010404020404 0201030305030104 0404040201030104 0104050301010105 0304040000040404 0402050202030403 0500040101020002 0202040504040102 0404030203000101 0404020001020104 0103050401020401 0404050103050203 0202040403020102 0204030504040500 0404040402000201 0201040302000204 0402030403000302 0501040102020203 0205030100030203 0400050400030304 0300010001000102 0005040200010400 0201030301010300 0402000003030202 0203000103010100 0103000003020504 0405040202010304 0301030200010302 0304000503010103 0403010000020500 0504020504040201 0402020003000104 0103020302020301 0201030302050501 0503050300010201 0102000302040401 0504040105020304 0303030302050401 0104010000020505 0100030303010401 0204030403040302 0202010401020100 0202030003050103 0304040302010300 0401010205020302 0300050302050404 0303040204030405 0003040303010102 0502030404000104 0100000200030404 0104040503010203 0201030501040400 0405010103000301 0203040200020401 0201020405000205 0101030104030203 0402010200040305 0001010101030401 0400030303040303 0202010004040401 0502040502020400 0301030104030204 0203040404020303 0302040302050004 0400030203040400 0004020402010302 0401040101030400 0404020404000400 0501040001040100 0103020004020102 0303020204030201 0405010004050405 0104010502010201 0301000101000203 0505040303010000 0104010003010201 0004010402010303 0300040104020100 0202010203020403 0402030400020400 0404030403040001 0303020203000402 0502010302050402 0305000402050001 0201050201000002 0305050003040103 0501020402020002 0200020203010305 0105010402020202 0204020304020302 0502030200030204 0201040203050502 0003030103050303 0300020204010203 0101030305030102 0402020304010201 0301040001010200 0100030404030303 0304050203030400 0002030503020302 0103020204030102 0102040404050001 0305030200030004 0401000403040105 0102020305000403 0302010305030500 0205040405020304 0301030200010304 0004040105010101 0002010303000103 0003030503020505 0502030404020303 0302030402020100 0301020402050402 0303010002030101 0201000403040004 0104030202000001 0105040200020002 0403020403010204 0201030504030502 0404000304050303 0303050200010200 0203010103030100 0503000402040402 0001030104010403 0504020203020303 0401010003050405 0204050103030503 0501020303010402 0104050005020501 0301030002010205 0101040201010000 0400010200040304 0404020001010300 0302010303010501 0401030302030304 0401020200000200 0002050101020501 0303050204050002 0404030102030002 0302000405020003 0202030301030305 0101030102030303 0302010503030404 0103030005050102 0203000405010201 0101040100030402 0304050503000405 0202040102050205 0501020402020101 0305010202030203 0102040100040303 0401030200020302 0304010202000202 0401000205040105 0001020403040504 0302010502040202 0404010405000304 0403030201040103 0004040402040005 0501040502030401 0004040203040303 0401050204000300 0100010201020303 0004040304020303 0404040401010203 0102030102010503 0304020404040401 0402010303010105 0104040301050101 0303030205010303 0205030101020203 0501040302040100 0203050103020001 0100040203030300 0301020203010104 0002000102000201 0401010200020001 0403010402030505 0301010101020102 0305000501000503 0505030303010502 0401030403010401 0402030104040403 0201010303030204 0303000303040300 0502020402040305 0501050202010403 0104040203030001 0305010402050103 0203030103030404 0401010302040204 0502020404020502 0103040402010002 0401040303020404 0504030103020104 0404010405040504 0502010203020404 0103050000000401 0202040505050202 0402030102020402 0200010503040304 0201030305040405 0303010102050404 0203040305020100 0304040304020303 0402030200030303 0304020203010204 0404050500040302 0302040105000403 0000050203000403 0202050304030103 0205010105040004 0202030303020202 0105030503030204 0004020200010104 0003020200000304 0303020400010501 0100020101020402 0001030100010005 0104040105010104 0401040301000300 0005020303000200 0103050004010305 0301040305050104 0305050101050004 0302020300030304 0101020005020203 0503030202030301 0301020304010104 0302010302030104 0301040304000303 0103040401010305 0003020203040302 0203020200020501 0200050301030304 0101000202010302 0301010103020105 0101020404020102 0504050101000200 0103040503020505 0103020503020301 0203040101050003 0305030102010302 0005030203030403 0203010204030405 0100030302030102 0203040203040202 0402010303030402 0101050500000400 0304000204050401 0202030102010401 0402010103010102 0202000403010501 0200010304000204 0402010203000304 0103040303040401 0101020004020002 0303010000030305 0201010404020401 0100020505040204 0200040201020203 0503000102000302 0005040403030102 0501040400040503 0401030404020405 0403000302050504 0204040400020304 0205050401010104 0201010503010404 0303030104020404 0203010403010200 0105010503050302 0304020000050101 0000030205040301 0300040302040101 0004020401030103 0003040104040404 0403030001020201 0301050502000501 0001020203000402 0204030303040101 0304010502010002 0302030004030203 0104020504010302 0002030002020104 0503000005030504 0502000204010200 0302030200020003 0304020004030205 0502030302010405 0001030403000301 0402010205020001 0502020301020302 0304040404000401 0404010205000404 0504020101010300 0403010404030204 0104000104050102 0400020201010500 0300030001040403 0205040300050405 0204010104020103 0301030502010403 0104030002010503 0500050102040403 0303020402040204 0203040002050202 0200010201030304 0504030404010004 0104030203010304 0104040301010504 0200020003030004 0300020103010404 0201020404050305 0002010200050202 0104040203020304 0000040404040402 0403000105010204 0303040404030501 0102020105040401 0402030203010003 0401000401010304 0302040103010001 0102020203030405 0505040400050404 0103050405030401 0201050303000404 0503010205010301 0501010205010403 0104040103020103 0105020101020405 0304030103020102 0503030504040200 0103030100030004 0201020201000402 0501040005030202 0205030002030201 0203050303030503 0401030101030303 0401050202050204 0504000305040104 0005020305000404 0105000004040004 0302050102030203 0102000504050200 0401030302030300 0101000105010100 0503020503030000 0300000301050403 0401040001030203 0400030500050503 0301020103010303 0402040403010302 0302040205010002 0103050102040502 0204010204000102 0202020005040504 0504020501030401 0101030405030103 0303000403020302 0103010205010205 0200020402050003 0403040501010203 0302040402030202 0103030300010003 0403000004040105 0303040405040401 0000030201020103 0403040001040201 0204040103040101 0402040301030102 0100030204040504 0201030300040302 0103010504040100 0004020200030104 0101000004020200 0101040303050202 0201050400020401 0201000104010402 0402030101040303 0403020003030005 0304020203000000 0001050305010201 0503050004030204 0504030205040400 0503010102020302 0402030200030405 0102010303020302 0204010101010305 0001050000020502 0005020401020103 0400050104000102 0403030204040203 0402040202040203 0305040502010101 0203000502030100 0405040103050001 0300030404020202 0301020204040304 0400030504050003 0100030400040203 0402010500020302 0204010403040003 0405020004040203 0103040304020300 0304030003030101 0304040301010203 0204050401030104 0203040401030105 0404020004020401 0104020104010103 0403010102010500 0002030401040101 0204030202030204 0200030402030401 0103010400010504 0403040102040204 0102030201030504 0100050003020201 0504040104030504 0205040202020202 0203020402000403 0201030303030400 0005050203020105 0205000402010402 0200020104000502 0505010303020503 0101020103050303 0203040501030305 0103040405020304 0401030201050303 0201030103020203 0005010501020104 0400020205030203 0301030201020400 0401040402050002 0200010204020204 0402030202010102 0103010201020201 0401030403030302 0201040003040503 0402030001030102 0301000405000101 0103000103000101 0004030101020301 0203020403050301 0204020303030005 0401050305040200 0305030202010302 0104040305030104 0202010204010100 0300010303010301 0004050101000405 0003010405020304 0404000403020002 0304040202030501 0300000200020001 0302030401000002 0202050101010402 0303040503000303 0402010004030304 0403020404030102 0404020303030301 0102050202000305 0104030103050101 0004010202010204 0404050204010101 0303020301010102 0001000304020305 0002040202010401 0302020301040504 0201010001030103 0302040003010403 0101010204050103 0501040203040203 0005030304000303 0102040301050104 0201050402050200 0204030101040401 0304000202020203 0304020402020400 0202040402020401 0201010100010300 0500040504040301 0404000305020201 0500020101010104 0202030203040104 0204030403040203 0504050304050204 0303000003000102 0303000203050304 0105040503020101 0101020102020303 0403000505020104 0200010505030204 0202040504020404 0403020105010302 0301020404020203 0403020301020202 0002000203020401 0505050101030302 0103030104050302 0500030105020303 0100010202020503 0301020303040104 0303020201030200 0402020404020100 0104000501010202 0204040105020103 0303020402040300 0204030303010102 0302010203030504 0004010202020203 0105020405020002 0504030102010302 0004050203030404 0204010102010100 0001050101010404 0402020404000305 0004020303000103 0200050103010104 0302040004040403 0404040104020202 0400000203040305 0203000103020102 0301050401010203 0005010101030101 0403030301040401 0204050301020305 0203030201000200 0402030005040302 0403050303050103 0103010203020004 0202010104040404 0000000204030405 0103000302000105 0301020403010202 0302050101000500 0401050204000303 0502000201050401 0103040400040301 0203030104040204 0200020404040004 0401050101010303 0101030304010204 0403020503010203 0303030403000503 0304020204010205 0103010100040402 0101000302040505 0002010105030101 0101040403020403 0003000304010401 0502020402020405 0404030005010204 0403040403010105 0102030204040503 0202000403040104 0204020505000204 0505040403050400 0401050202000301 0203020301030503 0205040001040005 0301040305030401 0405040501030003 0300020402030103 0103020102020400 0205000302010303 0203050301010200 0103010400030100 0401010403020304 0305030401010002 0200010204040201 0104030204040302 0000050300010304 0400000004020004 0503010504030303 0301030001050202 0002000301050002 0104030005020301 0001000301010305 0302040304000202 0502040003020305 0104020303050004 0004020104040201 0004050303000500 0402030302020401 0302020403010304 0303020300010401 0404030303020201 0202040302000503 0003000502030502 0101010104000001 0302020404020201 0504020403000403 0401040204000201 0002040201000401 0000010403010301 0003000101020100 0400010103040205 0002040201000502 0404030104030204 0402030201020101 0400020501030202 0501010301010403 0302040105050002 0200030101020500 0103020303010403 0302030200030102 0103040002020102 0205010101040100 0101030204010301 0301010203030304 0303050203020400 0201020305040202 0303050103040201 0002040202010201 0305040305020300 0203040100030503 0303010502020003 0303010401040501 0503020101010200 0202010202030102 0202020200020302 0203010005030403 0202020203030203 0103030202020201 0002030403030404 0201010204040403 0103030303010203 0105040103020505 0003050302010102 0304010404010400 0201030104000102 0103020400030305 0303020402050102 0303010403030101 0402000404010301 0201030201020501 0301000203050001 0301020304040002 0000020100040203 0502020404040204 0001050202000300 0402010204010103 0404040003000103 0203020202030401 0402010104030203 0401000302020304 0402040500050403 0300030205030203 0404020102020303 0203030003050302 0205020203000503 0402020401010305 0402020203040203 0301020502020003 0000020301050301 0101010004030203 0502040303030103 0504040205010103 0504010205030404 0204040101010405 0403040104010005 0003030503050304 0400040502030302 0504030504030002 0104010305040402 0205050503020204 0004020204030402 0503000105050203 0103030403040101 0302030301050405 0400030501040104 0005030502030105 0404010103000200 0401010504000100 0202030103030101 0304010202020404 0305030001050201 0001010404020101 0102030001020202 0403050001020103 0405020002050201 0201030100040301 0101010005050201 0003010202000100 0501040004010104 0405010101030301 0103010105010403 0304020304010101 0203030104050303 0400030005030502 0103020003010504 0400020203030504 0104000201030502 0205030100020404 0204000100050503 0405010504010200 0204030303030204 0101040102010001 0000000301020304 0203030303040203 0501010002000401 0401030400040201 0302040201040402 0501020302010304 0505010003020405 0101030305010102 0304000202050101 0504020104000204 0403050202020402 0101030503020201 0003010302030101 0100020201040100 0500030304030301 0401040304030205 0400050003030001 0204000303030404 0201030305040200 0202010501030401 0102010404010300 0202020101030404 0404030501020303 0204010303010102 0005020201030102 0001040102010203 0303050303010404 0304030304040001 0105000005030401 0402040001030403 0204040400020200 0405050404040301 0201010103020103 0302010304030503 0304040104020503 0103010203040105 0003030105000201 0204040501020403 0105020102010301 0301000301050203 0505030401030102 0401040200030103 0004030401040004 0002010304040303 0004040003020504 0404000200030401 0102010501000200 0204050405030104 0504040201010503 0102050405020103 0403030204030204 0104050301030400 0302010405050001 0300050103010202 0004040402010203 0305010401020505 0200040203030305 0402050402030202 0203050403040102 0103010104050302 0104020501010500 0302010302020501 0103000201030301 0404030504010103 0203050104020303 0201000501010404 0404050201040404 0205050401030102 0003010202030204 0300050101040404 0302040403010503 0302000401050302 0204030204040100 0305000503010101 0102030204030505 0403020504040001 0001040201020305 0403000103040502 0101040102010401 0302030004030102 0403020003000304 0302000402010403 0503030403020203 0304020403030502 0203030505000202 0504030205040405 0205020103030202 0102040101010403 0404010403010401 0303020404030003 0204050205010204 0204000402040301 0404000101040101 0505030203040403 0404040401030201 0304000203050500 0105010303020201 0301030404010404 0200020103010301 0304030404050103 0303040502000101 0102030000020201 0200020301010404 0402010301030504 0104010503010305 0301010302010100 0302040303030203 0105020001040001 0201030302040105 0002050502020305 0303030102040302 0005040003030105 0405010005050401 0501040004030104 0405020302030504 0104040105020300 0403010104010403 0102010405040104 0302030203010400 0102040401030504 0400020302040303 0205030404030101 0303040301030105 0500020504040203 0404000402050103 0201030003040103 0302010004020002 0305000402040302 0200010200030304 0501050104040300 0002030403010100 0202050400030103 0303030103040300 0300010302040304 0303020305020200 0203010403050403 0302020402010201 0102020305040001 0303050401030401 0003030503020202 0402020305000502 0103020001020200 0205040204020203 0103040305030004 0104030102030104 0303000402020401 0403020304040000 0302030503010403 0201040104030101 0303030102050201 0304020304030103 0205030504020004 0402010103030201 0300040101020205 0205050304040201 0400030201010101 0502030301030401 0301010105000204 0204030401050301 0004050000000303 0302040004040102 0304010101000003 0501020202030405 0302030500030105 0500010200020501 0500040301050402 0301010401020404 0302030302010405 0404020102030204 0403010400030101 0002030001020302 0402050403000101 0401010403050302 0003010001030503 0202030404030402 0302040000010403 0202040203010103 0000020204050302 0404000204030403 0504000000020303 0303040004010303 0503010100030205 0005050504030101 0104020403000302 0201010504020204 0501040401030103 0103050204030402 0101020201000505 0205010403020502 0101010304040303 0303050401010504 0201040202040503 0104030200020302 0204030102010504 0501010200010205 0201010201010202 0400000302000501 0402000204030201 0303020302040205 0501050501000105 0402040204040304 0004000203030304 0402020404020305 0101030503020502 0200050502000304 0002010200040402 0303030204010202 0404040003030504 0300000005040503 0203020401030405 0304020301020201 0204010405000300 0003000003030105 0202010405030201 0303040102020103 0501030001020403 0102010101040402 0102040301010401 0301010402020502 0104000005020004 0304010103030404 0301010102000305 0305030102020504 0204020303020402 0101030003000305 0404000201030004 0102010402030301 0404040104020102 0501030004010504 0001010202020401 0201020301030405 0102020202050204 0000010302010303 0401030500000200 0203000301010204 0104020100020502 0403040403000505 0402000401010004 0004030104010101 0104040101040204 0105030001010104 0000010202050402 0403040102040305 0401030503010105 0404010300020203 0302010104050101 0401040002030201 0302040303030302 0402040305040404 0404010404040302 0101020301030002 0001040205010203 0004010101040102 0101010204020203 0003000200020200 0101010203040402 0102020304000002 0301020101020302 0101020404000503 0405040501030403 0103030201020403 0401030402040204 0001000105030102 0202050000000203 0204000304020301 0404000205020201 0202050504000302 0403040502020301 0002010505010100 0303040205020103 0001050004040001 0201010001000104 0301040300030402 0100030201020504 0304010401040105 0302030303050101 0102020004000203 0103020004020403 0402010200040004 0404000402020104 0200030405030105 0203020204020500 0103000401000500 0202030202030203 0404040501020001 0004000302000301 0302020201000102 0103030004030300 0204010203020303 0201040404010404 0402050102020004 0501030101030404 0104010502040302 0000010303050403 0204020202010101 0003050404000303 0402040304020204 0401050300010301 0105030303020103 0003010402030201 0303000102010204 0502010404020404 0204020403030004 0002040401010205 0204020304020200 0300040305030103 0201010302010001 0103030102000100 0002020400040001 0003040005020303 0501030001020305 0003000303010105 0204040401000503 0401020401020502 0001040302000305 0405030400020301 0203000201040101 0505040003030203 0201010102040300 0402020003010201 0104040401040401 0103020304040004 0304030405020003 0305040203050205 0001030104000400 0504040101020202 0002040301030401 0304040202050303 0203010101020201 0401030003000401 0400040201040403 0104040402050305 0303020202000504 0301050203020402 0404000403040303 0105020404000100 0102030001030003 0204010205020104 0004010403040400 0001040001020203 0000020001050202 0003030101030403 0202020402050000 0404000403050204 0302000104030004 0101030202040202 0300030202010205 0104000004030303 0304050202040302 0104010300040502 0201030303030502 0000030101000203 0304010302000102 0301010205010100 0401010104000303 0403010002040501 0102000403030103 0405020201030100 0405000401030002 0201000201020302 0001040402040203 0404040101020101 0102040502030400 0400010503020302 0402050300010104 0103040501020305 0105010302040000 0503040103030102 0201030104010304 0401030204020301 0202000501000501 0304050105010003 0205040203000304 0301050401040202 0104010202010101 0204050205010004 0304030100010500 0001010301040301 0203020403000304 0002010204020303 0004030001000005 0301020301040201 0300000102030205 0300000402000504 0303020200010301 0003010304000404 0402040303000503 0204030400010500 0300000203010001 0102030103000101 0201020304000502 0102030300050303 0204040302050104 0205040300010404 0503040203030504 0301040202020403 0501040405020303 0404020400000302 0405000404030001 0201030203040403 0404040000040402 0103030201040005 0104010404050305 0405020301000201 0403030002030403 0401000204040202 0402000402000402 0300010201020301 0301050403030004 0203050304040400 0401030002040004 0300040502010301 0401030403010504 0203040402020202 0205040403020204 0303050205000402 0304030303030001 0501040203000402 0000010403010002 0301030203040201 0203030104020103 0504040504040501 0104010104040005 0503030301020303 0003050201030501 0204040403030201 0004010401030201 0300030301010001 0202020204000301 0404030204000300 0303030103040104 0504010503030103 0302030104040200 0004020103000400 0200000103020302 0003020400010103 0003020203040400 0501040400000302 0200020304030503 0401020300010401 0404000002020101 0102020203030504 0404020102010301 0405050305000404 0102030203010504 0203010103050402 0400050101010204 0101030405050304 0100030202010102 0103030101020102 0203050202040102 0203040504030401 0100010100040303 0405020303020404 0303000303000104 0204050501030302 0102030201020401 0201020400020103 0202030203010103 0104010502040103 0402040402000502 0405020104020401 0003030001020001 0401030301030403 0301020303030404 0405020405030002 0201030405000104 0104020005000202 0101030100010001 0502010401020504 0004020200030002 0204020403040305 0204030203000005 0004040102010403 0105030504020503 0504030101050301 0401050403010203 0502020504050402 0403050504030503 0501010103020401 0004040403010203 0104030401020502 0101030202020301 0003010003020304 0202010200050505 0102030501020104 0302010301030404 0203050102040203 0203050301020102 0001030504010103 0400040005010200 0105040302050201 0504040201000401 0100030100020303 0103040303050302 0105010300000404 0301050104020304 0405020204000403 0201040503010004 0201050502000204 0400020103050101 0403040101040005 0402040204020105 0304010204020400 0504020400040003 0401020205050103 0500010403040400 0101010300030104 0304000402000204 0000010105010201 0302030404030402 0303020302000402 0504040205030304 0101020004000202 0104020100010305 0303010004030303 0404040500020304 0101050200030203 0105020404040104 0303040401030005 0105050300000403 0000010204010004 0102030404020201 0302020503000304 0100000304050100 0004030201030304 0402010000000205 