memory_initialization_radix = 16;
memory_initialization_vector =
0000020105030103,
0105020100010102,
0402030003010402,
0000020202040201,
0405010001010000,
0102030301020402,
0404050404030401,
0202020305000105,
0405050303040403,
0400020001040301,
0302010303010104,
0300050203010403,
0302000402030404,
0500050105000104,
0203030202010204,
0404010101010404,
0002020205010301,
0403040301000404,
0300050202040405,
0104000305010002,
0204040503000203,
0205020301030204,
0402020202020103,
0003010205030201,
0103040504040201,
0002020501010204,
0203010303010401,
0103040102030401,
0101020105010302,
0401030002040302,
0401020302030101,
0402010202010204,
0105040204020005,
0302050101010204,
0301030204040302,
0303030204040205,
0102020100040203,
0403040000020204,
0301000201050304,
0101040104010404,
0500050304020104,
0403010402050302,
0404010402010301,
0103020304010201,
0204020502020102,
0403040400040004,
0303050101030200,
0105010302020504,
0304030005020001,
0102020203030404,
0203020403040103,
0403010302020202,
0001020104010303,
0102010401020501,
0102010001010404,
0204010300030204,
0201000202020203,
0103040404040102,
0303040502030402,
0204030404050501,
0401030303010201,
0301000200010504,
0203020203010304,
0301050503020504,
0202010500040402,
0403000404050204,
0504040203050201,
0301010402050103,
0300030101020503,
0304020100040403,
0400040504020101,
0503020503000104,
0202030105050204,
0300050104000201,
0101020304010105,
0101020401030302,
0401010501010101,
0202030200030403,
0101010102000303,
0301030201030002,
0204010100020202,
0402020503050503,
0102020300050502,
0202030504020202,
0403000303050100,
0202000001050103,
0204030103030303,
0405030504020202,
0003040103050404,
0200010400010100,
0404020004020302,
0204020005010400,
0202020303040404,
0204030403020203,
0304040505010101,
0301020103020102,
0304000103020104,
0401000504020203,
0203020104050004,
0501010400020103,
0100010201030403,
0403020105020401,
0302010204000105,
0504030405040400,
0001020401050003,
0404020300020100,
0103030302040503,
0104010003040403,
0001010204020401,
0305040104050301,
0300010301030302,
0101010402020103,
0301040201020203,
0203050002010305,
0502040204030101,
0301000005010405,
0201020501000405,
0303010400000103,
0404000100040503,
0103040202040403,
0300020005040201,
0400050201030201,
0004010300000102,
0300000302010401,
0404030501020301,
0305000103020404,
0203020300020003,
0201040202010303,
0204050405050201,
0401040101010100,
0404030403030202,
0204030401020500,
0104000001030202,
0103000304000200,
0503040003050102,
0300040300050101,
0201020200020203,
0104040403020401,
0001030201040401,
0100030403050301,
0300040403030504,
0401030104050301,
0204010102040401,
0303010403020402,
0205030402030203,
0502010004030503,
0403010303040504,
0405010102050205,
0300030104050304,
0404030303030305,
0401010401020401,
0004050102030202,
0401020103010304,
0202020202040004,
0305020200020201,
0402010103010201,
0105040402030403,
0504030301020301,
0103040503040401,
0005040205010101,
0303030300040102,
0403040100030001,
0403020202000401,
0304000104020301,
0402050205010003,
0302030101030305,
0104020005020203,
0101020303050404,
0002030100040200,
0403040503020403,
0204040304000202,
0003040303020303,
0303030203020303,
0302000102030403,
0103040503020405,
0104020400030302,
0203050303040502,
0202020204040205,
0103040305010402,
0502010404000200,
0201030100010301,
0404000300010204,
0003040201030302,
0501040501040402,
0201020404010203,
0404040201040405,
0401010204020503,
0400050304040301,
0400020405030402,
0205030103030102,
0102030303010201,
0502010101040201,
0305020105020204,
0203040201040405,
0205040403010304,
0103020304020305,
0300040204010305,
0305010503040202;

